{",": 1, "▁to": 2, "s": 3, "▁a": 4, ".": 5, "▁the": 6, "'": 7, "▁i": 8, "▁my": 9, "▁and": 10, "▁in": 11, "▁\"": 12, "▁of": 13, "▁is": 14, "r": 15, "▁for": 16, "ers": 17, "]": 18, "it": 19, "m": 20, "▁trump": 21, ":": 22, "▁b": 23, "▁s": 24, "are": 25, "pp": 26, "t": 27, "▁[": 28, "ics": 29, "▁e": 30, "▁o": 31, "pu": 32, "pol": 33, "f": 34, "\"": 35, "▁on": 36, "▁me": 37, "▁h": 38, "▁with": 39, "ed": 40, "-": 41, ")": 42, "2": 43, "/": 44, "p": 45, "▁p": 46, "▁g": 47, "▁f": 48, "▁(": 49, "’": 50, "d": 51, "?": 52, "▁it": 53, "o": 54, "▁do": 55, "ing": 56, "c": 57, "er": 58, "▁y": 59, "▁c": 60, "in": 61, "▁l": 62, "▁t": 63, "▁m": 64, "a": 65, "▁r": 66, "i": 67, "▁d": 68, "▁he": 69, "▁apple": 70, "e": 71, "ate": 72, "y": 73, "▁from": 74, "u": 75, "b": 76, "▁n": 77, "▁that": 78, "3": 79, "l": 80, "▁not": 81, "▁google": 82, "▁you": 83, "n": 84, "▁new": 85, "▁up": 86, "▁'": 87, "▁be": 88, "g": 89, "▁w": 90, "▁was": 91, "▁an": 92, "es": 93, "▁at": 94, "▁this": 95, "or": 96, "▁v": 97, "▁has": 98, "v": 99, "▁now": 100, "8": 101, "▁have": 102, "!": 103, "▁her": 104, "▁can": 105, "▁what": 106, "al": 107, "▁out": 108, "▁u": 109, "▁are": 110, "▁how": 111, "ly": 112, "▁as": 113, "▁k": 114, "1": 115, "h": 116, ".\"": 117, "▁we": 118, "▁all": 119, "▁about": 120, "▁by": 121, "\",": 122, "▁his": 123, "▁but": 124, "▁will": 125, "▁just": 126, "▁pro": 127, "ic": 128, "os": 129, "▁over": 130, "ation": 131, "▁us": 132, "7": 133, "▁after": 134, "▁she": 135, "4": 136, "eck": 137, "▁does": 138, "▁your": 139, "pper": 140, "▁am": 141, "k": 142, "▁donald": 143, "le": 144, "▁st": 145, "▁house": 146, "an": 147, "▁so": 148, "is": 149, "w": 150, "▁android": 151, "▁re": 152, "▁one": 153, "oo": 154, "6": 155, "▁ex": 156, "en": 157, "▁no": 158, "▁app": 159, "▁don": 160, "▁pu": 161, "el": 162, "▁good": 163, "▁j": 164, "[": 165, "▁boy": 166, "us": 167, "▁": 168, "▁who": 169, "▁our": 170, "▁says": 171, "gg": 172, "re": 173, "9": 174, "▁or": 175, "on": 176, "▁mac": 177, "▁back": 178, "ve": 179, "ist": 180, "▁get": 181, "▁iphone": 182, "▁president": 183, "▁years": 184, "?\"": 185, "▁should": 186, "z": 187, "ment": 188, "▁-": 189, "▁they": 190, "et": 191, "5": 192, "x": 193, "ad": 194, "at": 195, "and": 196, "▁if": 197, "▁‘": 198, "ir": 199, "▁when": 200, "ia": 201, "▁off": 202, "▁time": 203, "▁boyfriend": 204, "ent": 205, "ren": 206, "▁3": 207, "▁go": 208, "ot": 209, "ated": 210, "▁like": 211, "est": 212, "▁wants": 213, "th": 214, "▁found": 215, "ar": 216, "▁ios": 217, "▁pay": 218, "▁un": 219, "▁him": 220, "▁girlfriend": 221, "▁first": 222, "▁sp": 223, "am": 224, "▁ch": 225, "▁because": 226, "▁friend": 227, "▁been": 228, "▁sh": 229, "ol": 230, "▁want": 231, "▁car": 232, "▁white": 233, "▁le": 234, "id": 235, "▁why": 236, "▁2": 237, "▁russia": 238, "st": 239, "▁rep": 240, "▁more": 241, "ac": 242, "▁being": 243, "up": 244, "▁home": 245, "ies": 246, "ch": 247, "alaxy": 248, "▁year": 249, "ap": 250, "ro": 251, "ack": 252, "om": 253, "ant": 254, "▁their": 255, "...": 256, "▁5": 257, "im": 258, "my": 259, "▁had": 260, "as": 261, "▁“": 262, "il": 263, "▁sm": 264, "▁come": 265, "j": 266, "▁people": 267, "▁play": 268, "▁ad": 269, "ell": 270, "▁de": 271, "ive": 272, "ion": 273, "▁day": 274, "ort": 275, "▁down": 276, "▁into": 277, "▁int": 278, "▁sex": 279, "”": 280, "ence": 281, "▁still": 282, "amsung": 283, "▁al": 284, "20": 285, "▁wife": 286, "ee": 287, "op": 288, "▁show": 289, "ut": 290, "ix": 291, "▁than": 292, "▁res": 293, "ab": 294, "▁10": 295, "▁8": 296, "▁got": 297, "▁them": 298, "0": 299, ";": 300, "▁sen": 301, "ig": 302, "▁its": 303, "▁dis": 304, "(": 305, "▁today": 306, "ear": 307, "▁think": 308, "▁cl": 309, "▁open": 310, "▁sc": 311, "▁work": 312, "▁russian": 313, "ual": 314, "od": 315, "▁make": 316, "ide": 317, "▁bill": 318, "art": 319, "ass": 320, "able": 321, "ath": 322, "▁7": 323, "ow": 324, "ore": 325, "▁ne": 326, "▁under": 327, "▁some": 328, "▁know": 329, "25": 330, "ain": 331, "amp": 332, "▁big": 333, "▁old": 334, "▁201": 335, "▁man": 336, "▁didn": 337, "ens": 338, "▁need": 339, "ook": 340, "our": 341, "▁told": 342, "▁while": 343, "▁use": 344, "▁su": 345, "▁sch": 346, "▁made": 347, "ach": 348, "ter": 349, "ating": 350, "▁any": 351, "▁husband": 352, "ump": 353, "▁x": 354, "age": 355, "ans": 356, "ign": 357, "▁4": 358, "▁threat": 359, "ine": 360, "–": 361, "▁phone": 362, "ur": 363, "▁best": 364, "▁would": 365, "ex": 366, "▁free": 367, "ates": 368, "▁here": 369, "▁last": 370, "ge": 371, "▁without": 372, "se": 373, "em": 374, "▁stop": 375, "▁say": 376, "30": 377, "▁con": 378, "▁pr": 379, "▁call": 380, "▁investig": 381, "▁em": 382, "▁acc": 383, "▁let": 384, "▁6": 385, "tr": 386, "',": 387, "ard": 388, "▁11": 389, "▁air": 390, "ations": 391, "▁rec": 392, "▁republic": 393, "▁ph": 394, "ra": 395, "▁sec": 396, "▁ass": 397, "ip": 398, "▁months": 399, "▁were": 400, "▁th": 401, "ity": 402, "ork": 403, "▁en": 404, "ian": 405, "▁sn": 406, "▁bl": 407, "▁fb": 408, "ress": 409, "▁se": 410, "▁right": 411, "▁obama": 412, "▁may": 413, "ice": 414, "amb": 415, "▁going": 416, "▁find": 417, "ure": 418, "▁tr": 419, "▁fl": 420, "ner": 421, "ast": 422, "▁doesn": 423, "boy": 424, "um": 425, "▁ar": 426, "ay": 427, "+": 428, "▁much": 429, "▁there": 430, "nn": 431, "▁li": 432, "▁gr": 433, "▁net": 434, "one": 435, "▁fire": 436, "▁did": 437, "pl": 438, "▁br": 439, "▁world": 440, "▁com": 441, "▁never": 442, "ors": 443, "▁take": 444, "▁love": 445, "▁legal": 446, "▁again": 447, "lus": 448, "ial": 449, "▁before": 450, "▁two": 451, "read": 452, "▁watch": 453, "ets": 454, "ary": 455, "ting": 456, "ality": 457, "▁only": 458, "▁tax": 459, "▁im": 460, "▁$": 461, "ays": 462, "▁most": 463, "▁next": 464, "▁see": 465, "▁really": 466, "ill": 467, "▁company": 468, "▁ab": 469, "▁gu": 470, "▁&": 471, "▁per": 472, "▁gets": 473, "▁someone": 474, "▁apps": 475, "▁won": 476, "▁ip": 477, "▁long": 478, "ess": 479, "▁$1": 480, "▁ago": 481, "▁end": 482, "ance": 483, "▁getting": 484, "▁give": 485, "▁too": 486, "▁girl": 487, "ush": 488, "▁fr": 489, "▁9": 490, "▁put": 491, "▁ref": 492, "▁ask": 493, "ak": 494, "▁pl": 495, "▁please": 496, "▁te": 497, "▁pre": 498, "ks": 499, "▁support": 500, "▁money": 501, "▁son": 502, "▁law": 503, "▁dog": 504, "▁guy": 505, "▁mar": 506, "ub": 507, "▁mus": 508, "▁bo": 509, "▁job": 510, "ps": 511, "▁test": 512, "ry": 513, "ally": 514, "▁own": 515, "▁ser": 516, "▁used": 517, "ite": 518, "ions": 519, "▁cor": 520, "▁life": 521, "▁way": 522, "ted": 523, "▁mom": 524, "!\"": 525, "▁feel": 526, "its": 527, "ie": 528, "▁amazon": 529, "▁internet": 530, "ake": 531, "▁family": 532, "ile": 533, "▁child": 534, "▁happy": 535, "▁start": 536, "ul": 537, "ning": 538, "ome": 539, "%": 540, "be": 541, "ue": 542, ",000": 543, "▁could": 544, "▁help": 545, "▁sister": 546, "lord": 547, "▁ann": 548, "oun": 549, "▁coll": 550, "lo": 551, "▁facebook": 552, "als": 553, "ats": 554, "▁conf": 555, "▁left": 556, "▁relationship": 557, "per": 558, "ire": 559, "king": 560, "qu": 561, "ms": 562, "▁z": 563, "all": 564, "ts": 565, "▁bar": 566, "▁against": 567, "to": 568, "▁report": 569, "▁another": 570, "▁away": 571, "ec": 572, "ret": 573, "ri": 574, "du": 575, "▁dr": 576, "used": 577, "▁ever": 578, "▁official": 579, "▁even": 580, "▁said": 581, "ll": 582, "ons": 583, "▁full": 584, "▁live": 585, "▁co": 586, "▁dep": 587, "▁during": 588, "io": 589, "ag": 590, "ust": 591, "▁americans": 592, "▁care": 593, "▁ob": 594, "▁asked": 595, "ob": 596, "▁having": 597, "ory": 598, "cing": 599, "▁ce": 600, "less": 601, "ank": 602, "▁friends": 603, "com": 604, "ib": 605, "act": 606, "phone": 607, "pt": 608, "▁ap": 609, "ase": 610, "▁cr": 611, "ration": 612, "▁1": 613, "we": 614, "▁state": 615, "▁top": 616, "▁leg": 617, "▁health": 618, "▁democr": 619, "▁claims": 620, "ails": 621, "un": 622, "igh": 623, "▁ha": 624, "▁comp": 625, "▁disc": 626, "▁things": 627, "▁every": 628, "▁post": 629, "▁war": 630, "▁other": 631, "▁trying": 632, "▁took": 633, "▁sure": 634, "ber": 635, "▁part": 636, "▁using": 637, "ord": 638, "aked": 639, "ered": 640, "▁makes": 641, "▁trans": 642, "ck": 643, "▁che": 644, "▁calls": 645, "ife": 646, "▁coming": 647, "lfriend": 648, "bs": 649, "▁source": 650, "▁plan": 651, "ail": 652, "▁days": 653, "▁par": 654, "▁12": 655, "ce": 656, "val": 657, "▁went": 658, "ening": 659, "ings": 660, "▁doing": 661, "essions": 662, "▁cong": 663, "▁cost": 664, "bor": 665, "▁tim": 666, "▁tell": 667, "▁comm": 668, "pa": 669, "ama": 670, "go": 671, "▁twitter": 672, "▁rem": 673, "led": 674, "▁read": 675, "▁mcc": 676, "ject": 677, "▁launch": 678, "▁sur": 679, "▁bad": 680, "pr": 681, "ments": 682, "▁tv": 683, "▁business": 684, "▁att": 685, "ico": 686, "now": 687, "▁name": 688, "unch": 689, "end": 690, "▁bre": 691, "▁ns": 692, "▁pol": 693, "ical": 694, "▁sl": 695, "▁def": 696, "▁dad": 697, "▁month": 698, "▁talk": 699, "if": 700, "oll": 701, "▁steve": 702, "ling": 703, "▁week": 704, "▁hard": 705, "man": 706, "▁aw": 707, "ces": 708, "▁night": 709, "▁through": 710, "▁look": 711, "▁reported": 712, "▁high": 713, "▁ag": 714, "—": 715, "▁campaign": 716, "▁jo": 717, "▁la": 718, "oot": 719, "illion": 720, "▁police": 721, "▁sent": 722, "ves": 723, "▁video": 724, "▁security": 725, "▁email": 726, "oman": 727, "00": 728, "*": 729, "▁smart": 730, "▁update": 731, "▁pat": 732, "▁supp": 733, "▁dem": 734, "ode": 735, "▁inf": 736, "▁bu": 737, "▁keep": 738, "ss": 739, "eg": 740, "eral": 741, "way": 742, "▁until": 743, "▁cont": 744, "▁court": 745, "▁broke": 746, "ones": 747, "▁return": 748, "▁woman": 749, "▁mother": 750, "fl": 751, "▁leave": 752, "ware": 753, "ight": 754, "▁mo": 755, "ash": 756, "sh": 757, "▁har": 758, "res": 759, "▁thought": 760, "les": 761, "▁ret": 762, "▁lot": 763, "▁hours": 764, "▁char": 765, "ify": 766, "▁ban": 767, "▁press": 768, "▁devices": 769, "▁since": 770, "▁apartment": 771, "▁microsoft": 772, "pe": 773, "▁anyone": 774, "▁med": 775, "ey": 776, "ud": 777, "friend": 778, "int": 779, "▁ev": 780, "gb": 781, "▁almost": 782, "▁many": 783, "▁where": 784, "imate": 785, "the": 786, "▁break": 787, "uss": 788, "▁parents": 789, "ists": 790, "ah": 791, "▁data": 792, "own": 793, "ous": 794, "▁lost": 795, "cl": 796, "▁users": 797, "▁ps": 798, "▁person": 799, "▁advice": 800, "▁san": 801, "▁property": 802, "illed": 803, "ters": 804, "!!": 805, "▁election": 806, "▁very": 807, "oud": 808, "ized": 809, "form": 810, "▁web": 811, "▁des": 812, "ave": 813, "work": 814, "orn": 815, "uck": 816, "▁land": 817, "▁inter": 818, "▁reddit": 819, "view": 820, "onald": 821, "ved": 822, "ouch": 823, "▁neut": 824, "▁screen": 825, "▁q": 826, "ne": 827, "▁then": 828, "▁little": 829, "▁news": 830, "▁ww": 831, "lock": 832, "ox": 833, "▁chr": 834, "ired": 835, "vel": 836, "aid": 837, "velop": 838, "ants": 839, "▁access": 840, "▁plus": 841, "▁fed": 842, "ands": 843, "▁account": 844, "▁buy": 845, "▁better": 846, "ew": 847, "▁mis": 848, "vest": 849, "▁note": 850, "▁father": 851, "▁20": 852, "▁reve": 853, "ower": 854, "▁text": 855, "oc": 856, "red": 857, "▁2016": 858, "ou": 859, "▁cons": 860, "▁ind": 861, "ier": 862, "▁order": 863, "▁called": 864, "▁black": 865, "▁ma": 866, "▁cheating": 867, "▁contact": 868, "▁wrong": 869, "▁fox": 870, "▁set": 871, "▁claim": 872, "▁repe": 873, "iv": 874, "ft": 875, "ced": 876, "ared": 877, "ator": 878, "acy": 879, "▁ro": 880, "▁step": 881, "▁gen": 882, "▁secret": 883, "ges": 884, "▁den": 885, "aps": 886, "▁pet": 887, "ited": 888, "no": 889, "▁longer": 890, "care": 891, "lect": 892, "▁sw": 893, "ect": 894, "iring": 895, "gram": 896, "▁18": 897, "ote": 898, "ition": 899, "q": 900, "▁wh": 901, "▁os": 902, "ploy": 903, "▁fired": 904, "ep": 905, "oto": 906, "▁(1": 907, "50": 908, "nd": 909, "▁water": 910, "ages": 911, "▁cut": 912, "▁head": 913, "▁feature": 914, "▁til": 915, "▁office": 916, "▁add": 917, "▁isn": 918, "▁school": 919, "▁phones": 920, "ino": 921, "▁vote": 922, "▁meeting": 923, "▁hand": 924, "▁/": 925, "▁battery": 926, "▁together": 927, "|": 928, "▁keeps": 929, "▁cow": 930, "aking": 931, "ving": 932, "ident": 933, "▁personal": 934, "▁everything": 935, "ction": 936, "ied": 937, "▁service": 938, "ows": 939, "ver": 940, "▁hit": 941, "mer": 942, "▁bet": 943, "inal": 944, "▁everyone": 945, "▁well": 946, "reat": 947, "ians": 948, "▁15": 949, "▁commit": 950, "▁also": 951, "he": 952, "▁states": 953, "▁something": 954, "▁york": 955, "▁change": 956, "icial": 957, "▁taking": 958, "▁finally": 959, "▁roy": 960, "▁pls": 961, "▁neighbor": 962, "▁making": 963, "ke": 964, "▁$2": 965, "▁windows": 966, "ires": 967, "ering": 968, "ann": 969, "▁mod": 970, "ement": 971, "▁calling": 972, "az": 973, "▁these": 974, "▁power": 975, "▁public": 976, "▁dec": 977, "▁anything": 978, "ict": 979, "ault": 980, "▁move": 981, "▁turn": 982, "▁wall": 983, "app": 984, "co": 985, "▁which": 986, "▁act": 987, "▁daughter": 988, "af": 989, "using": 990, "▁america": 991, "▁weeks": 992, "▁store": 993, "▁pregnant": 994, "aks": 995, "ick": 996, "ational": 997, "itch": 998, "▁cloud": 999, "arn": 1000, "▁ac": 1001, "▁id": 1002, "▁inst": 1003, "ices": 1004, "ind": 1005, "▁wish": 1006, "▁later": 1007, "orm": 1008, "iz": 1009, "urity": 1010, "▁team": 1011, "▁qu": 1012, "▁gold": 1013, "1.": 1014, "▁bit": 1015, "▁po": 1016, "..": 1017, "▁rating": 1018, "▁american": 1019, "▁ter": 1020, "▁imp": 1021, "▁boo": 1022, "▁bed": 1023, "▁passed": 1024, "uring": 1025, "ld": 1026, "▁same": 1027, "cript": 1028, "▁pres": 1029, "oy": 1030, "▁lo": 1031, "▁real": 1032, "▁paid": 1033, "ins": 1034, "sec": 1035, "ents": 1036, "▁might": 1037, "min": 1038, "ger": 1039, "▁display": 1040, "uses": 1041, "ose": 1042, "▁actually": 1043, "ised": 1044, "▁class": 1045, "▁fake": 1046, ").": 1047, "▁married": 1048, "ven": 1049, "ption": 1050, "rop": 1051, "▁died": 1052, "og": 1053, "▁hel": 1054, "ying": 1055, "ct": 1056, "▁came": 1057, "▁hot": 1058, "▁camera": 1059, "mo": 1060, "vice": 1061, "▁search": 1062, "els": 1063, "ased": 1064, "▁quit": 1065, "ief": 1066, "▁bank": 1067, "▁issues": 1068, "ful": 1069, "▁dead": 1070, "▁run": 1071, "▁case": 1072, "▁gave": 1073, "ging": 1074, "▁mex": 1075, "▁card": 1076, "▁history": 1077, "▁sign": 1078, "room": 1079, "▁gf": 1080, "ney": 1081, "▁brother": 1082, "▁room": 1083, "▁kind": 1084, "ong": 1085, "ually": 1086, "▁intellig": 1087, "do": 1088, "ily": 1089, "▁met": 1090, "ild": 1091, "ric": 1092, "11": 1093, "line": 1094, "▁available": 1095, "▁7.": 1096, "▁sy": 1097, "ender": 1098, "ost": 1099, "gr": 1100, "ror": 1101, "erry": 1102, "▁2.": 1103, "▁illeg": 1104, "hip": 1105, "▁must": 1106, "▁sleep": 1107, "▁red": 1108, "▁exp": 1109, "▁already": 1110, "▁jeff": 1111, "▁admin": 1112, "▁confir": 1113, "▁saying": 1114, "▁soon": 1115, "▁walk": 1116, "▁rent": 1117, "▁poll": 1118, "lf": 1119, "▁ram": 1120, "ool": 1121, "▁eng": 1122, "▁story": 1123, "▁user": 1124, "ime": 1125, "▁mass": 1126, "▁youtube": 1127, "▁looking": 1128, "▁min": 1129, "▁software": 1130, "),": 1131, "acking": 1132, "old": 1133, "ides": 1134, "▁government": 1135, "▁low": 1136, "ency": 1137, "bit": 1138, "iss": 1139, "▁100": 1140, "▁list": 1141, "▁prot": 1142, "▁release": 1143, "▁past": 1144, "out": 1145, "▁due": 1146, "▁needs": 1147, "▁myself": 1148, "▁ur": 1149, "▁million": 1150, "▁three": 1151, "▁design": 1152, "▁nothing": 1153, "▁deal": 1154, "▁vs": 1155, "▁single": 1156, "▁appro": 1157, "▁op": 1158, "▁beta": 1159, "▁touch": 1160, "▁wire": 1161, "ators": 1162, "ert": 1163, "ury": 1164, "ern": 1165, "ody": 1166, "ock": 1167, "▁few": 1168, "oss": 1169, "▁1.": 1170, "wh": 1171, "ru": 1172, "ional": 1173, "oof": 1174, "eep": 1175, "000": 1176, "ough": 1177, "▁viol": 1178, "ich": 1179, "é": 1180, "▁half": 1181, "ened": 1182, "▁ver": 1183, "ified": 1184, "agon": 1185, "▁date": 1186, "ater": 1187, "ize": 1188, "ony": 1189, "▁else": 1190, "▁event": 1191, "▁mine": 1192, "▁:)": 1193, "▁evidence": 1194, "fort": 1195, "vis": 1196, "▁started": 1197, "aud": 1198, "▁working": 1199, "▁code": 1200, "▁200": 1201, "air": 1202, "ound": 1203, "▁inc": 1204, "vers": 1205, "ming": 1206, "▁cat": 1207, "▁arrest": 1208, "▁download": 1209, "▁switch": 1210, "roll": 1211, "▁fil": 1212, "dr": 1213, "▁wor": 1214, "▁price": 1215, "▁rap": 1216, "band": 1217, "▁fe": 1218, "ai": 1219, "▁done": 1220, "igned": 1221, "▁small": 1222, "erence": 1223, "gin": 1224, "▁button": 1225, "▁photos": 1226, "▁finger": 1227, "??": 1228, "▁insurance": 1229, "▁marriage": 1230, "▁ho": 1231, "▁kids": 1232, "unt": 1233, "ug": 1234, "acks": 1235, "▁system": 1236, "▁30": 1237, "▁game": 1238, "▁once": 1239, "ears": 1240, "ond": 1241, "▁always": 1242, "ole": 1243, "▁ed": 1244, "ism": 1245, "▁fund": 1246, "40": 1247, "▁anymore": 1248, "acked": 1249, "▁hold": 1250, "▁interview": 1251, "ature": 1252, "▁mon": 1253, "▁future": 1254, "ship": 1255, "▁sub": 1256, "ained": 1257, "▁asking": 1258, "ought": 1259, "▁remove": 1260, "you": 1261, "me": 1262, "osed": 1263, "▁recently": 1264, "her": 1265, "▁travel": 1266, "▁device": 1267, "▁try": 1268, "▁information": 1269, "▁options": 1270, "▁around": 1271, "ended": 1272, "▁media": 1273, "roid": 1274, "▁visit": 1275, "▁meet": 1276, "▁div": 1277, "cking": 1278, "▁takes": 1279, "▁spec": 1280, "earch": 1281, "▁turned": 1282, "ava": 1283, "▁edit": 1284, "▁cent": 1285, "ars": 1286, "▁fast": 1287, "ains": 1288, "▁living": 1289, "ame": 1290, "ax": 1291, "wn": 1292, "xt": 1293, "stem": 1294, "book": 1295, "▁online": 1296, "▁second": 1297, "ute": 1298, "▁demand": 1299, "▁share": 1300, "▁anti": 1301, "mail": 1302, "▁letter": 1303, "ff": 1304, "mission": 1305, "usive": 1306, "ise": 1307, "▁address": 1308, "▁moved": 1309, "▁shows": 1310, "▁del": 1311, "ued": 1312, "▁pass": 1313, "ari": 1314, "ree": 1315, "ising": 1316, "au": 1317, "▁ok": 1318, "▁possible": 1319, "imes": 1320, "dd": 1321, "▁women": 1322, "▁ins": 1323, "▁stuff": 1324, "▁send": 1325, "▁coun": 1326, "▁wasn": 1327, "▁james": 1328, "▁hurt": 1329, "▁himself": 1330, "▁clinton": 1331, "▁dating": 1332, "uth": 1333, "box": 1334, "ink": 1335, "▁private": 1336, "la": 1337, "ious": 1338, "10": 1339, "ending": 1340, "▁whats": 1341, "▁sil": 1342, "▁front": 1343, "iff": 1344, "▁hell": 1345, "ang": 1346, "▁entire": 1347, "ont": 1348, "ler": 1349, "▁face": 1350, "ace": 1351, "▁+": 1352, "ative": 1353, "▁website": 1354, "▁released": 1355, "aces": 1356, "▁dev": 1357, "▁rights": 1358, "board": 1359, "▁received": 1360, "ues": 1361, "ification": 1362, "▁introdu": 1363, "▁iph": 1364, "▁paying": 1365, "▁looks": 1366, "▁sold": 1367, "▁despite": 1368, "▁military": 1369, "▁party": 1370, "▁thing": 1371, "lease": 1372, "ential": 1373, "▁baby": 1374, "▁rare": 1375, "den": 1376, "▁features": 1377, "▁sell": 1378, "▁rel": 1379, "nt": 1380, "▁det": 1381, "▁shut": 1382, "ift": 1383, "▁pri": 1384, "ward": 1385, "▁program": 1386, "▁attack": 1387, "eek": 1388, "▁machine": 1389, "▁building": 1390, "▁partner": 1391, "aw": 1392, "▁17": 1393, "▁50": 1394, "ale": 1395, "▁goes": 1396, "urn": 1397, "▁popular": 1398, "ery": 1399, "▁lear": 1400, "▁ads": 1401, "▁clear": 1402, "right": 1403, "▁social": 1404, "▁exec": 1405, "▁24": 1406, "ape": 1407, "▁jud": 1408, "▁line": 1409, "▁adv": 1410, "ason": 1411, "▁tri": 1412, "aled": 1413, "▁5.": 1414, "te": 1415, "▁review": 1416, "sc": 1417, "ability": 1418, "get": 1419, "bo": 1420, "ott": 1421, "▁whole": 1422, "aim": 1423, "▁reason": 1424, "▁ill": 1425, "▁problem": 1426, "▁instead": 1427, "▁imm": 1428, "▁record": 1429, "ots": 1430, "▁boss": 1431, "tc": 1432, "▁leaving": 1433, "alth": 1434, "▁charged": 1435, "this": 1436, "▁parent": 1437, "▁lawyer": 1438, "▁trip": 1439, "▁!": 1440, "▁adop": 1441, "ifornia": 1442, "▁mal": 1443, "ping": 1444, "▁rob": 1445, "rew": 1446, "ron": 1447, "200": 1448, "cast": 1449, "bl": 1450, "aging": 1451, "by": 1452, "ty": 1453, "ities": 1454, "und": 1455, "duct": 1456, "fer": 1457, "▁gl": 1458, "oth": 1459, "▁oper": 1460, "▁number": 1461, "face": 1462, "con": 1463, "▁bought": 1464, "▁thinks": 1465, "▁yes": 1466, "▁works": 1467, "ares": 1468, "ph": 1469, "eal": 1470, "▁protect": 1471, "enc": 1472, "▁those": 1473, "omm": 1474, "▁ste": 1475, "ored": 1476, "▁adm": 1477, "atic": 1478, "▁check": 1479, "▁drive": 1480, "▁develop": 1481, "ere": 1482, "▁believe": 1483, "▁credit": 1484, "▁leaders": 1485, "der": 1486, "ount": 1487, "▁city": 1488, "▁remember": 1489, "▁stay": 1490, "ouse": 1491, "br": 1492, "ured": 1493, "▁:(": 1494, "▁between": 1495, "▁inv": 1496, "uments": 1497, "▁admit": 1498, "▁sand": 1499, "post": 1500, "▁kid": 1501, "▁amb": 1502, "iance": 1503, "],": 1504, "▁.": 1505, "▁earth": 1506, "▁tra": 1507, "ups": 1508, "ific": 1509, "ys": 1510, "▁14": 1511, "▁bas": 1512, "▁staff": 1513, "uts": 1514, "ero": 1515, "ood": 1516, "eth": 1517, "▁texas": 1518, "▁engine": 1519, "▁mess": 1520, "▁sending": 1521, "▁running": 1522, "▁control": 1523, "▁book": 1524, "ky": 1525, "▁developers": 1526, "▁employees": 1527, "itive": 1528, "▁employ": 1529, "▁self": 1530, "▁str": 1531, "▁13": 1532, "▁ny": 1533, "ish": 1534, "▁showing": 1535, "▁rev": 1536, "▁medical": 1537, "land": 1538, "ma": 1539, "▁april": 1540, "▁true": 1541, "enger": 1542, "▁student": 1543, "▁fin": 1544, "ads": 1545, "▁16": 1546, "▁giving": 1547, "▁univers": 1548, "▁fight": 1549, "ness": 1550, "ently": 1551, "▁col": 1552, "▁force": 1553, "▁talking": 1554, "arent": 1555, "ked": 1556, "use": 1557, "▁rolling": 1558, "usion": 1559, "aign": 1560, "▁vot": 1561, "▁surgery": 1562, "▁female": 1563, "enn": 1564, "▁space": 1565, "3.": 1566, "▁john": 1567, "aged": 1568, "▁linux": 1569, "time": 1570, "any": 1571, "amer": 1572, "99": 1573, "ata": 1574, "▁win": 1575, "▁computer": 1576, "▁av": 1577, "back": 1578, "▁ai": 1579, "▁learn": 1580, "▁owner": 1581, "▁poor": 1582, "ik": 1583, "▁consider": 1584, "▁netflix": 1585, "▁40": 1586, "▁priv": 1587, "▁removed": 1588, "onn": 1589, "other": 1590, "ade": 1591, "▁super": 1592, "ker": 1593, "▁32": 1594, "▁pe": 1595, "▁sick": 1596, "ifies": 1597, "▁die": 1598, "▁updates": 1599, "▁great": 1600, "▁lose": 1601, "▁birthday": 1602, "lin": 1603, "▁speech": 1604, "▁allowed": 1605, "▁fix": 1606, "▁releases": 1607, "▁sens": 1608, "ifications": 1609, "▁adds": 1610, "▁members": 1611, "▁problems": 1612, "▁laws": 1613, "▁false": 1614, "▁michael": 1615, "▁susp": 1616, "▁host": 1617, "▁kiss": 1618, "▁cute": 1619, "orce": 1620, "▁roomm": 1621, "vide": 1622, "▁music": 1623, "▁acqu": 1624, "▁tre": 1625, "av": 1626, "ctor": 1627, "▁wins": 1628, "ga": 1629, "ude": 1630, "▁stud": 1631, "ird": 1632, "apers": 1633, "▁men": 1634, "med": 1635, "▁behind": 1636, "▁sol": 1637, "att": 1638, "▁stand": 1639, "ible": 1640, "rit": 1641, "▁china": 1642, "▁quick": 1643, "▁bring": 1644, "anc": 1645, "▁stolen": 1646, "ooks": 1647, "▁port": 1648, "oh": 1649, "▁contract": 1650, "▁follow": 1651, "ea": 1652, "▁pop": 1653, "▁hands": 1654, "ization": 1655, "ames": 1656, "phones": 1657, "▁pretty": 1658, "▁difference": 1659, "ange": 1660, "▁accident": 1661, "▁respond": 1662, "jor": 1663, "▁former": 1664, "lt": 1665, "▁town": 1666, "▁perfect": 1667, "▁yesterday": 1668, "▁employee": 1669, "uff": 1670, "▁issue": 1671, "ane": 1672, "ior": 1673, "une": 1674, "▁cra": 1675, "▁third": 1676, "▁couple": 1677, "▁worst": 1678, "ison": 1679, "▁file": 1680, "bed": 1681, "▁times": 1682, "▁orders": 1683, "kes": 1684, "▁billion": 1685, "aling": 1686, "▁enough": 1687, "airs": 1688, "▁hu": 1689, "ged": 1690, "▁foreign": 1691, "▁russ": 1692, "▁embarrass": 1693, "▁question": 1694, "ctions": 1695, "yer": 1696, "ana": 1697, "▁neighb": 1698, "▁brought": 1699, "aaaaaaaa": 1700, "▁discovered": 1701, "ten": 1702, "ilt": 1703, "ith": 1704, "ites": 1705, "▁reg": 1706, "▁thanks": 1707, "erson": 1708, "pos": 1709, "▁haven": 1710, "▁page": 1711, "▁25": 1712, "▁hack": 1713, "▁dark": 1714, "▁miss": 1715, "ember": 1716, "▁fuck": 1717, "ium": 1718, "cept": 1719, "▁ten": 1720, "▁speed": 1721, "▁broken": 1722, "▁moment": 1723, "▁thank": 1724, "▁local": 1725, "omin": 1726, "ze": 1727, "load": 1728, "bers": 1729, "ina": 1730, "day": 1731, "ead": 1732, "ark": 1733, "▁caught": 1734, "▁ran": 1735, "▁version": 1736, "▁park": 1737, "ville": 1738, "_": 1739, "▁george": 1740, "▁selling": 1741, "ef": 1742, "▁starting": 1743, "▁suggest": 1744, "not": 1745, "▁#": 1746, "aster": 1747, "▁built": 1748, "ruction": 1749, "▁allow": 1750, "▁far": 1751, "▁key": 1752, "cer": 1753, "ished": 1754, "▁dest": 1755, "▁mike": 1756, "▁upset": 1757, "iting": 1758, "▁statement": 1759, "▁twe": 1760, "essed": 1761, "▁picture": 1762, "▁rest": 1763, "▁@": 1764, "▁seeing": 1765, "▁guys": 1766, "▁nice": 1767, "ically": 1768, "▁critic": 1769, "▁posted": 1770, "port": 1771, "▁door": 1772, "▁comes": 1773, "▁percent": 1774, "oice": 1775, "▁brief": 1776, "▁ready": 1777, "▁pictures": 1778, "▁political": 1779, "▁country": 1780, "▁recovery": 1781, "▁eat": 1782, "▁male": 1783, "essage": 1784, "ustom": 1785, "▁star": 1786, "ult": 1787, "▁cy": 1788, "come": 1789, "vern": 1790, "rupt": 1791, "▁art": 1792, "yn": 1793, "▁welcome": 1794, "▁wanted": 1795, "▁slow": 1796, "▁copy": 1797, "ources": 1798, "illa": 1799, "put": 1800, "ev": 1801, "ures": 1802, "▁battle": 1803, "▁tomorrow": 1804, "aker": 1805, "oid": 1806, "owing": 1807, "2.": 1808, "ccess": 1809, "▁short": 1810, "▁$3": 1811, "▁millions": 1812, "▁plans": 1813, "▁dru": 1814, "▁build": 1815, "▁cash": 1816, "▁request": 1817, "uman": 1818, "▁major": 1819, "▁usa": 1820, "▁rich": 1821, "atch": 1822, "▁breaking": 1823, "▁companies": 1824, "▁bra": 1825, "▁sad": 1826, "itter": 1827, "light": 1828, "ffect": 1829, "▁judge": 1830, "▁pick": 1831, "fr": 1832, "▁tur": 1833, "▁val": 1834, "ular": 1835, "gia": 1836, "▁currently": 1837, "▁become": 1838, "▁grand": 1839, "eng": 1840, "▁product": 1841, "▁huge": 1842, "izon": 1843, "▁spot": 1844, "▁21": 1845, "▁close": 1846, "ords": 1847, "▁california": 1848, "▁sales": 1849, "▁sk": 1850, "ull": 1851, "▁comments": 1852, "rated": 1853, "▁point": 1854, "▁roll": 1855, "▁moving": 1856, "▁jail": 1857, "ises": 1858, "oney": 1859, "▁tried": 1860, "▁human": 1861, "▁join": 1862, "▁both": 1863, "pect": 1864, "▁videos": 1865, "▁young": 1866, "▁charging": 1867, "▁seen": 1868, "▁charge": 1869, "▁less": 1870, "▁saw": 1871, "▁block": 1872, "▁telling": 1873, "▁sne": 1874, "urb": 1875, "▁early": 1876, "▁*": 1877, "▁flag": 1878, "ugg": 1879, "elly": 1880, "▁least": 1881, "▁parking": 1882, "▁signs": 1883, "ches": 1884, "lection": 1885, "ago": 1886, "▁club": 1887, "▁charl": 1888, "▁loan": 1889, "▁smile": 1890, "eeee": 1891, "▁hospital": 1892, "orida": 1893, "ever": 1894, "▁spe": 1895, "ision": 1896, "▁cross": 1897, "▁light": 1898, "ble": 1899, "iving": 1900, "ister": 1901, "down": 1902, "▁large": 1903, "ource": 1904, "▁desktop": 1905, "▁happ": 1906, "▁lives": 1907, "▁attempt": 1908, "ection": 1909, "ining": 1910, "▁pan": 1911, "anned": 1912, "▁enc": 1913, "▁messages": 1914, "▁shoot": 1915, "ience": 1916, "gest": 1917, "▁19": 1918, "uit": 1919, "▁sum": 1920, "▁frank": 1921, "▁non": 1922, "▁match": 1923, "▁mark": 1924, "▁sim": 1925, "▁vis": 1926, "▁guide": 1927, "▁market": 1928, "erm": 1929, "works": 1930, "▁default": 1931, "ards": 1932, "▁expl": 1933, "▁rules": 1934, "ills": 1935, "oint": 1936, "▁likely": 1937, "▁cur": 1938, "nder": 1939, "idence": 1940, "▁hate": 1941, "pping": 1942, "▁ant": 1943, "▁happened": 1944, "▁,": 1945, "▁install": 1946, "ather": 1947, "bert": 1948, "▁fun": 1949, "ases": 1950, "▁announced": 1951, "80": 1952, "▁india": 1953, "▁fre": 1954, "▁ult": 1955, "▁weekend": 1956, "▁pc": 1957, "▁elect": 1958, "▁based": 1959, "aring": 1960, "▁oh": 1961, "ams": 1962, "ressed": 1963, "▁middle": 1964, "▁decided": 1965, "▁death": 1966, "orts": 1967, "▁prov": 1968, "ipped": 1969, "ung": 1970, "sel": 1971, "▁hope": 1972, "▁prom": 1973, "ped": 1974, "▁holding": 1975, "iser": 1976, "▁heart": 1977, "play": 1978, "oph": 1979, "▁special": 1980, "amed": 1981, "▁arri": 1982, "▁notice": 1983, "rs": 1984, "▁vict": 1985, "▁different": 1986, "war": 1987, "▁knew": 1988, "▁completely": 1989, "▁direct": 1990, "▁ow": 1991, "▁gone": 1992, "▁dogs": 1993, "▁justice": 1994, "▁citiz": 1995, "▁eth": 1996, "ancy": 1997, "ests": 1998, "lim": 1999, "ried": 2000, "▁accidentally": 2001, "▁hus": 2002, "▁uncomfortable": 2003, "▁$4": 2004, "▁master": 2005, "ately": 2006, "▁paul": 2007, "▁manager": 2008, "▁minutes": 2009, "▁usb": 2010, "▁fail": 2011, "▁customer": 2012, "ster": 2013, "▁voice": 2014, "utor": 2015, "raw": 2016, "self": 2017, "▁el": 2018, "▁wrote": 2019, "▁process": 2020, "▁ball": 2021, "▁tor": 2022, "rent": 2023, "mit": 2024, "aught": 2025, "▁stock": 2026, "▁sky": 2027, "▁view": 2028, "▁community": 2029, "pro": 2030, "▁laptop": 2031, "▁destro": 2032, "▁tech": 2033, "iver": 2034, "▁ent": 2035, "▁er": 2036, "▁$10": 2037, "▁testing": 2038, "▁moves": 2039, "▁course": 2040, "fw": 2041, "▁blo": 2042, "▁tab": 2043, "miss": 2044, "▁cancer": 2045, "oring": 2046, "po": 2047, "gress": 2048, "icious": 2049, "iness": 2050, "▁forced": 2051, "gins": 2052, "top": 2053, "ees": 2054, "icking": 2055, "ton": 2056, "▁important": 2057, "▁college": 2058, "cess": 2059, "rom": 2060, "▁driver": 2061, "▁place": 2062, "▁spent": 2063, "▁following": 2064, "▁bur": 2065, "▁clean": 2066, "▁inform": 2067, "na": 2068, "▁saved": 2069, "ta": 2070, "▁willing": 2071, "▁fall": 2072, "ips": 2073, "oogle": 2074, "ask": 2075, "ends": 2076, "▁across": 2077, "▁seems": 2078, "▁stri": 2079, "▁jack": 2080, "▁discuss": 2081, "▁contin": 2082, "▁cool": 2083, "▁asks": 2084, "▁effort": 2085, "▁photo": 2086, "reen": 2087, "inder": 2088, "▁tap": 2089, "rem": 2090, "▁assist": 2091, "cs": 2092, "▁students": 2093, "▁final": 2094, "▁each": 2095, "▁remind": 2096, "▁canada": 2097, "outs": 2098, "oom": 2099, "ager": 2100, "▁onto": 2101, "ls": 2102, "▁becoming": 2103, "▁enjoy": 2104, "▁fighting": 2105, "▁jones": 2106, "olf": 2107, "reet": 2108, "▁vet": 2109, "▁grow": 2110, "▁joe": 2111, "zen": 2112, "▁cab": 2113, "oop": 2114, "reme": 2115, "▁lets": 2116, "▁browser": 2117, "▁drop": 2118, "▁lie": 2119, "agram": 2120, "izing": 2121, "▁spread": 2122, "ha": 2123, "▁dom": 2124, "ively": 2125, "tm": 2126, "▁kn": 2127, "lay": 2128, "▁allows": 2129, "hing": 2130, "▁late": 2131, "ruct": 2132, "▁remo": 2133, "▁$5": 2134, "▁comment": 2135, "vent": 2136, "▁cle": 2137, "▁approach": 2138, "▁raid": 2139, "omb": 2140, "▁sony": 2141, "▁integr": 2142, "▁ext": 2143, "rap": 2144, "▁server": 2145, "15": 2146, "▁ir": 2147, "▁und": 2148, "inger": 2149, "bing": 2150, "▁mag": 2151, "▁password": 2152, "aff": 2153, "▁cause": 2154, "cle": 2155, "ider": 2156, "▁experience": 2157, "▁cell": 2158, "▁near": 2159, "▁blocked": 2160, "▁north": 2161, "olution": 2162, "side": 2163, "so": 2164, "▁idea": 2165, "cks": 2166, "▁reports": 2167, "ween": 2168, "▁united": 2169, "▁taken": 2170, "under": 2171, "▁project": 2172, "▁thr": 2173, "iet": 2174, "▁da": 2175, "aph": 2176, "▁site": 2177, "ination": 2178, "sp": 2179, "▁games": 2180, "▁officially": 2181, "▁invest": 2182, "▁worth": 2183, "▁thousands": 2184, "▁60": 2185, "▁scr": 2186, "12": 2187, "mon": 2188, "▁cannot": 2189, "▁pool": 2190, "▁gives": 2191, "▁records": 2192, "▁mode": 2193, "let": 2194, "▁hits": 2195, "▁happens": 2196, "▁biggest": 2197, "eto": 2198, "▁ended": 2199, "iction": 2200, "▁shit": 2201, "▁multiple": 2202, "▁manufact": 2203, "▁conc": 2204, "icted": 2205, "▁morning": 2206, "▁handle": 2207, "ado": 2208, "▁seem": 2209, "....": 2210, "▁expected": 2211, "▁cover": 2212, "isc": 2213, "▁rain": 2214, "▁ple": 2215, "▁lead": 2216, "▁wait": 2217, "▁held": 2218, "▁wouldn": 2219, "▁weird": 2220, "▁:": 2221, "▁dump": 2222, "udes": 2223, "▁australia": 2224, "gur": 2225, "itt": 2226, "▁accept": 2227, "idents": 2228, "▁dinner": 2229, "▁que": 2230, "uri": 2231, "▁mad": 2232, "▁worried": 2233, "▁belie": 2234, "▁concern": 2235, "▁gradu": 2236, "▁teen": 2237, "▁herself": 2238, "▁vacation": 2239, "▁bf": 2240, "▁bathroom": 2241, "▁previous": 2242, "▁tools": 2243, "▁link": 2244, "ules": 2245, "▁inside": 2246, "iber": 2247, "ables": 2248, "utes": 2249, "cul": 2250, "▁attacks": 2251, "uture": 2252, "6.": 2253, "▁decl": 2254, "4.": 2255, "bre": 2256, "cient": 2257, "▁bull": 2258, "▁dou": 2259, "ov": 2260, "oops": 2261, "ng": 2262, "pet": 2263, "▁wal": 2264, "▁require": 2265, "▁hardware": 2266, "▁sources": 2267, "▁22": 2268, "urs": 2269, "▁wr": 2270, "▁industry": 2271, "▁numbers": 2272, "▁sing": 2273, "▁dist": 2274, "▁ange": 2275, "▁border": 2276, "▁worked": 2277, "▁28": 2278, "mb": 2279, "ract": 2280, "force": 2281, "▁dam": 2282, "▁cheat": 2283, "▁indian": 2284, "▁ic": 2285, "ishing": 2286, "person": 2287, "▁mer": 2288, "▁represent": 2289, "▁drops": 2290, "lish": 2291, "cr": 2292, "▁science": 2293, "▁thinking": 2294, "▁probably": 2295, "▁higher": 2296, "arm": 2297, "▁national": 2298, "ij": 2299, "▁starts": 2300, "ours": 2301, "▁chat": 2302, "▁given": 2303, "vert": 2304, "iki": 2305, "▁jobs": 2306, "▁simple": 2307, "▁23": 2308, ".”": 2309, "▁crush": 2310, "body": 2311, "▁subscri": 2312, "▁ben": 2313, "▁mean": 2314, "iles": 2315, "unning": 2316, "▁prep": 2317, "▁hidden": 2318, "▁often": 2319, "▁owners": 2320, "▁edge": 2321, "▁regarding": 2322, "▁majority": 2323, "$": 2324, "▁kill": 2325, "▁track": 2326, "ilities": 2327, "▁hur": 2328, "ims": 2329, "▁nearly": 2330, "▁tired": 2331, "rier": 2332, "▁include": 2333, "▁alone": 2334, "▁lock": 2335, "▁window": 2336, "ially": 2337, "▁appears": 2338, "▁waiting": 2339, "▁ta": 2340, "▁four": 2341, "▁crazy": 2342, "▁heard": 2343, "uch": 2344, "▁caused": 2345, "▁...": 2346, "▁questions": 2347, "▁snow": 2348, "hold": 2349, "▁otherwise": 2350, "\".": 2351, "▁hates": 2352, "▁unf": 2353, "▁group": 2354, "▁signed": 2355, "▁reach": 2356, "ray": 2357, "▁straight": 2358, "gn": 2359, "▁offered": 2360, "▁personally": 2361, "▁general": 2362, "how": 2363, "▁bills": 2364, "▁tweet": 2365, "▁est": 2366, "▁pot": 2367, "▁lying": 2368, "▁grab": 2369, "▁cond": 2370, "▁wit": 2371, "▁attention": 2372, "▁food": 2373, ";3": 2374, "▁wow": 2375, "▁scary": 2376, "▁haha": 2377, "▁)": 2378, "▁asleep": 2379, "▁sleeping": 2380, "▁angry": 2381, "▁doctor": 2382, "▁constantly": 2383, "▁religious": 2384, "▁tow": 2385, "▁minor": 2386, "▁uk": 2387, "-1": 2388, "rive": 2389, "▁projects": 2390, "got": 2391, "▁package": 2392, "ology": 2393, "▁hi": 2394, "▁reviews": 2395, "elf": 2396, "over": 2397, "▁save": 2398, "aining": 2399, "urd": 2400, "gs": 2401, "▁regist": 2402, "▁agreed": 2403, "▁hello": 2404, "yl": 2405, "icks": 2406, "illing": 2407, "aving": 2408, "ublic": 2409, "▁payment": 2410, "▁hor": 2411, "atter": 2412, "ball": 2413, "cial": 2414, "ove": 2415, "▁feels": 2416, "▁scam": 2417, "oup": 2418, "inks": 2419, "iding": 2420, "▁mobile": 2421, "▁$100": 2422, "▁ss": 2423, "▁customers": 2424, "ria": 2425, "ett": 2426, "▁books": 2427, "apped": 2428, "▁cpu": 2429, "▁finished": 2430, "▁fal": 2431, "ounds": 2432, "▁spend": 2433, "▁unlock": 2434, "cy": 2435, "with": 2436, "akes": 2437, "▁research": 2438, "rib": 2439, "▁squ": 2440, "▁voted": 2441, "ipe": 2442, "osh": 2443, "icture": 2444, "▁talks": 2445, "erv": 2446, "▁situation": 2447, "irth": 2448, "▁results": 2449, "▁wild": 2450, "▁size": 2451, "key": 2452, "▁amazing": 2453, "cean": 2454, "▁children": 2455, "uclear": 2456, "▁missing": 2457, "▁seriously": 2458, "inc": 2459, "ils": 2460, "ading": 2461, "▁dream": 2462, "▁quiet": 2463, "enses": 2464, "▁los": 2465, "for": 2466, "ivers": 2467, "▁debt": 2468, "▁stopped": 2469, "▁di": 2470, "▁announce": 2471, "▁costs": 2472, "actions": 2473, "arded": 2474, "▁patch": 2475, "▁cru": 2476, "arks": 2477, "▁limit": 2478, "ounce": 2479, "ument": 2480, "▁fixed": 2481, "rim": 2482, "aries": 2483, "▁including": 2484, "▁turns": 2485, "▁banned": 2486, "▁quest": 2487, "▁summer": 2488, "etic": 2489, "rees": 2490, "leep": 2491, "▁considering": 2492, "▁added": 2493, "▁35": 2494, "▁mr": 2495, "bc": 2496, "▁prison": 2497, "rol": 2498, "aded": 2499, "▁terrible": 2500, "▁worry": 2501, "dog": 2502, "icated": 2503, "▁gas": 2504, "▁closed": 2505, "▁sort": 2506, "▁maybe": 2507, "▁aware": 2508, "▁message": 2509, "vey": 2510, "▁ear": 2511, "8.": 2512, "▁fit": 2513, "▁choose": 2514, "▁wear": 2515, "rd": 2516, "▁buying": 2517, "ji": 2518, "▁brings": 2519, "▁latest": 2520, "▁wake": 2521, "▁changed": 2522, "▁via": 2523, "▁hop": 2524, "▁ends": 2525, "▁immediately": 2526, "▁pic": 2527, "▁ahead": 2528, "▁normal": 2529, "▁shopping": 2530, "cent": 2531, "▁leaves": 2532, "eed": 2533, "▁continue": 2534, "ege": 2535, "▁trust": 2536, "▁literally": 2537, "ceed": 2538, "▁planning": 2539, "▁pulled": 2540, "▁points": 2541, "▁offers": 2542, "▁firm": 2543, "abled": 2544, "▁expect": 2545, "alty": 2546, "▁box": 2547, "atives": 2548, "7.": 2549, "ashing": 2550, "▁passes": 2551, "~": 2552, "▁?": 2553, "️": 2554, "set": 2555, "▁needed": 2556, "aced": 2557, "▁ut": 2558, "▁abandon": 2559, "▁checks": 2560, "▁transition": 2561, "▁seat": 2562, "oke": 2563, "oul": 2564, "▁positive": 2565, "▁cancel": 2566, "bur": 2567, "gh": 2568, "fter": 2569, "pre": 2570, "nal": 2571, "▁street": 2572, "▁const": 2573, "▁apart": 2574, "ould": 2575, "▁hang": 2576, "▁politic": 2577, "reg": 2578, "▁ang": 2579, "▁though": 2580, "▁wedding": 2581, "▁likes": 2582, "▁neighborhood": 2583, "▁yard": 2584, "▁cousin": 2585, "▁younger": 2586, "▁feelings": 2587, "▁cops": 2588, "▁votes": 2589, "▁hy": 2590, "▁bro": 2591, "▁bel": 2592, "ike": 2593, "ux": 2594, "▁lin": 2595, "ica": 2596, "orth": 2597, "ories": 2598, "▁learning": 2599, "▁writing": 2600, "▁humans": 2601, "uto": 2602, "▁magic": 2603, "▁apolog": 2604, "▁reading": 2605, "▁quality": 2606, "berry": 2607, "usted": 2608, "▁files": 2609, "itary": 2610, "ivity": 2611, "omen": 2612, "cri": 2613, "year": 2614, "▁bitcoin": 2615, "▁production": 2616, "ple": 2617, "▁spending": 2618, "dy": 2619, "▁supports": 2620, "▁log": 2621, "aby": 2622, "▁capt": 2623, "▁reven": 2624, "▁cry": 2625, "ital": 2626, "▁replacement": 2627, "▁complete": 2628, "▁programming": 2629, "▁network": 2630, "irect": 2631, "asing": 2632, "▁age": 2633, "▁updated": 2634, "▁difficult": 2635, "▁cap": 2636, "▁pen": 2637, "idden": 2638, "ution": 2639, "pass": 2640, "▁unc": 2641, "overed": 2642, "▁cert": 2643, "▁stick": 2644, "ope": 2645, "▁pur": 2646, "▁france": 2647, "uary": 2648, "arr": 2649, "lder": 2650, "▁damage": 2651, "▁ge": 2652, "▁destroyed": 2653, "ena": 2654, "▁custom": 2655, "▁daily": 2656, "▁safety": 2657, "▁tw": 2658, "▁auto": 2659, "iling": 2660, "adem": 2661, "ume": 2662, "▁carry": 2663, "▁ring": 2664, "9.": 2665, "▁beautiful": 2666, "▁fell": 2667, "oog": 2668, "▁march": 2669, "▁development": 2670, "▁nyc": 2671, "▁platform": 2672, "▁90": 2673, "ept": 2674, "▁mistake": 2675, "▁brit": 2676, "▁active": 2677, "▁sa": 2678, "▁finding": 2679, "▁ordered": 2680, "▁sal": 2681, "▁understand": 2682, "acing": 2683, "▁airport": 2684, "aming": 2685, "▁basic": 2686, "▁accepted": 2687, "▁norm": 2688, "▁--": 2689, "▁tiny": 2690, "▁automatically": 2691, "▁brand": 2692, "▁shot": 2693, "5%": 2694, "▁washington": 2695, "su": 2696, "▁saving": 2697, "▁requires": 2698, "lier": 2699, "▁education": 2700, "▁neg": 2701, "▁action": 2702, "▁products": 2703, "▁original": 2704, "▁ability": 2705, "anted": 2706, "▁model": 2707, "head": 2708, "gen": 2709, "istic": 2710, "▁info": 2711, "▁hearing": 2712, "▁center": 2713, "anged": 2714, "▁yet": 2715, "▁controls": 2716, "▁gar": 2717, "!!!": 2718, "▁outside": 2719, "▁rece": 2720, "▁strong": 2721, "70": 2722, "▁dropped": 2723, "epend": 2724, "▁ruined": 2725, "list": 2726, "▁changes": 2727, "▁replaced": 2728, "▁unless": 2729, "▁causing": 2730, "▁funds": 2731, "va": 2732, "▁warrant": 2733, "▁along": 2734, "▁panel": 2735, "ication": 2736, "isk": 2737, "▁girls": 2738, "▁purchased": 2739, "irst": 2740, "▁changing": 2741, "--": 2742, "aning": 2743, "▁extremely": 2744, "▁wondering": 2745, "▁bernie": 2746, "▁promise": 2747, "▁serve": 2748, "▁nfl": 2749, "▁coverage": 2750, "▁answer": 2751, "▁offic": 2752, "▁member": 2753, "▁impl": 2754, "▁ve": 2755, "itution": 2756, "▁hillary": 2757, "▁hair": 2758, "▁aff": 2759, "▁dip": 2760, "▁hall": 2761, "▁christmas": 2762, "▁hero": 2763, "▁pregn": 2764, "▁ign": 2765, "▁rac": 2766, "▁none": 2767, "augh": 2768, "▁esc": 2769, "▁dish": 2770, "aire": 2771, "▁mil": 2772, "ny": 2773, "▁cu": 2774, "!?": 2775, "uffy": 2776, "▁hungry": 2777, "▁jealous": 2778, "▁bear": 2779, "▁cold": 2780, "▁birth": 2781, "▁wont": 2782, "▁lady": 2783, "▁visiting": 2784, "▁trees": 2785, "▁title": 2786, "aron": 2787, "bal": 2788, "▁developed": 2789, "acle": 2790, "▁hire": 2791, "▁links": 2792, "▁webs": 2793, "rict": 2794, "iam": 2795, "▁recogn": 2796, "▁vr": 2797, "ream": 2798, "pha": 2799, "onse": 2800, "▁80": 2801, "▁oct": 2802, "anced": 2803, "▁connection": 2804, "icles": 2805, "ural": 2806, "▁gpu": 2807, "▁term": 2808, "▁articles": 2809, "irt": 2810, "▁afric": 2811, "▁side": 2812, "▁five": 2813, "▁favorite": 2814, "▁virt": 2815, "▁voting": 2816, "▁dig": 2817, "▁lar": 2818, "▁accounts": 2819, "de": 2820, "▁listening": 2821, "▁success": 2822, "fully": 2823, "▁felt": 2824, "▁value": 2825, "of": 2826, "que": 2827, "▁breaks": 2828, "▁tom": 2829, "▁japan": 2830, "iped": 2831, "▁language": 2832, "aren": 2833, "ield": 2834, "▁gener": 2835, "▁select": 2836, "▁root": 2837, "▁bug": 2838, "▁implement": 2839, "▁technology": 2840, "▁faces": 2841, "▁author": 2842, "▁mir": 2843, "ention": 2844, "ives": 2845, "gan": 2846, "▁mat": 2847, "▁whose": 2848, "▁current": 2849, "▁replace": 2850, "action": 2851, "▁max": 2852, "ym": 2853, "▁sites": 2854, "▁ty": 2855, "▁tested": 2856, "▁perspective": 2857, "▁6.": 2858, "ament": 2859, "▁abs": 2860, "aste": 2861, "plete": 2862, "iced": 2863, "aper": 2864, "cut": 2865, "tern": 2866, "&": 2867, "most": 2868, "▁tool": 2869, "blem": 2870, "arter": 2871, "▁50%": 2872, "erg": 2873, "▁ca": 2874, "▁cam": 2875, "ograph": 2876, "▁such": 2877, "▁suit": 2878, "pected": 2879, "▁safe": 2880, "▁improve": 2881, "▁complex": 2882, "ouble": 2883, "▁awesome": 2884, "▁mail": 2885, "reed": 2886, "▁clock": 2887, "5.": 2888, "▁stops": 2889, "▁consum": 2890, "ius": 2891, "▁hide": 2892, "outh": 2893, "che": 2894, "▁loss": 2895, "ifi": 2896, "▁scratch": 2897, "ground": 2898, "▁entry": 2899, "▁level": 2900, "orters": 2901, "▁8.": 2902, "icy": 2903, "uly": 2904, "ounter": 2905, "istent": 2906, "▁closest": 2907, "▁movies": 2908, "▁able": 2909, "▁balance": 2910, "ops": 2911, "▁hasn": 2912, "▁truck": 2913, "▁tal": 2914, "▁created": 2915, "▁activity": 2916, "▁king": 2917, "▁ones": 2918, "▁dollars": 2919, "▁fore": 2920, "ility": 2921, "▁stream": 2922, "▁audio": 2923, "▁posts": 2924, "▁option": 2925, "▁sharing": 2926, "▁awful": 2927, "soci": 2928, "▁icon": 2929, "ww": 2930, "irm": 2931, "▁quickly": 2932, "▁indic": 2933, "▁treat": 2934, "▁vehicle": 2935, "▁rise": 2936, "▁confirmed": 2937, "▁playing": 2938, "▁organ": 2939, "▁actions": 2940, "but": 2941, "▁forward": 2942, "▁delay": 2943, "ternal": 2944, "▁repair": 2945, "part": 2946, "▁chinese": 2947, "▁exactly": 2948, "ived": 2949, "▁4.": 2950, "arts": 2951, "▁fo": 2952, "▁absolutely": 2953, "▁matter": 2954, "▁promot": 2955, "▁quite": 2956, "ials": 2957, "▁$20": 2958, "▁hey": 2959, "▁sale": 2960, "what": 2961, "▁green": 2962, "▁known": 2963, "▁lots": 2964, "▁sees": 2965, "▁pack": 2966, "▁pull": 2967, "▁facts": 2968, "▁gym": 2969, "▁concerned": 2970, "uled": 2971, "▁trick": 2972, "▁cop": 2973, "▁boot": 2974, "▁responsible": 2975, "▁unre": 2976, "▁korea": 2977, "▁26": 2978, "imm": 2979, "▁wid": 2980, "▁camer": 2981, "tf": 2982, "▁round": 2983, "▁puts": 2984, "met": 2985, "cons": 2986, "▁loc": 2987, "▁jump": 2988, "apping": 2989, "ause": 2990, "ems": 2991, "▁rom": 2992, "▁required": 2993, "▁twice": 2994, "ilty": 2995, "▁lived": 2996, "▁florida": 2997, "▁tells": 2998, "▁gun": 2999, "cc": 3000, "▁pain": 3001, "**": 3002, "▁pressure": 3003, "▁civil": 3004, "▁interest": 3005, "▁hon": 3006, "▁hyp": 3007, "▁arm": 3008, "▁settle": 3009, "▁respect": 3010, "▁ko": 3011, "uty": 3012, "▁uns": 3013, "oob": 3014, "...\"": 3015, "▁shower": 3016, "▁eye": 3017, "▁trouble": 3018, "▁boys": 3019, "irl": 3020, "▁conv": 3021, "ionally": 3022, "/3": 3023, "▁kept": 3024, "▁knowledge": 3025, "▁physically": 3026, "▁tree": 3027, "wood": 3028, "rest": 3029, "riage": 3030, "▁bern": 3031, "▁collect": 3032, "▁ts": 3033, "iest": 3034, "inds": 3035, "▁david": 3036, "▁helped": 3037, "▁advert": 3038, "she": 3039, "▁target": 3040, "▁stupid": 3041, "ache": 3042, "▁license": 3043, "▁phil": 3044, "▁distrib": 3045, "lic": 3046, "▁led": 3047, "▁servers": 3048, "ota": 3049, "gged": 3050, "away": 3051, "▁tip": 3052, "▁hun": 3053, "iller": 3054, "▁count": 3055, "real": 3056, "▁images": 3057, "▁lat": 3058, "▁channel": 3059, "▁raise": 3060, "▁image": 3061, "ulation": 3062, "ral": 3063, "bb": 3064, "▁fully": 3065, "▁interact": 3066, "word": 3067, "▁beat": 3068, "elling": 3069, "500": 3070, "abs": 3071, "ression": 3072, "▁noticed": 3073, "zz": 3074, "▁resolution": 3075, "▁vi": 3076, "▁suddenly": 3077, "olog": 3078, "▁sd": 3079, "▁bus": 3080, "▁nintendo": 3081, "▁result": 3082, "▁modern": 3083, "antly": 3084, "▁hotel": 3085, "ales": 3086, "▁contro": 3087, "mark": 3088, "inking": 3089, "▁pract": 3090, "▁god": 3091, "▁chris": 3092, "▁boston": 3093, "ense": 3094, "new": 3095, "priate": 3096, "▁switched": 3097, "▁70": 3098, "▁knows": 3099, "row": 3100, "▁client": 3101, "▁45": 3102, "▁faster": 3103, "▁defend": 3104, "▁rip": 3105, "▁rate": 3106, "iously": 3107, "▁steal": 3108, "ald": 3109, "▁prevent": 3110, "▁income": 3111, "▁citizens": 3112, "rant": 3113, "▁lit": 3114, "aa": 3115, "aying": 3116, "ds": 3117, "ossible": 3118, "▁opened": 3119, "▁deep": 3120, "yle": 3121, "▁road": 3122, "▁remote": 3123, "anta": 3124, "▁focus": 3125, "berg": 3126, "▁command": 3127, "uted": 3128, "▁cod": 3129, "ring": 3130, "▁potential": 3131, "▁write": 3132, "onym": 3133, "place": 3134, "ogn": 3135, "▁push": 3136, "▁=": 3137, "▁brain": 3138, "gt": 3139, "▁application": 3140, "▁flo": 3141, "▁bi": 3142, "atory": 3143, "cont": 3144, "oty": 3145, "dle": 3146, "5,": 3147, "▁graphics": 3148, "▁mind": 3149, "▁several": 3150, "▁mentioned": 3151, "iders": 3152, "▁details": 3153, "▁subs": 3154, "60": 3155, "▁permanent": 3156, "▁earlier": 3157, "ube": 3158, "▁feeling": 3159, "umb": 3160, "pting": 3161, "2,": 3162, "▁storage": 3163, "▁activ": 3164, "▁doc": 3165, "▁deleted": 3166, "izes": 3167, "▁hal": 3168, "▁offer": 3169, "atively": 3170, "▁policy": 3171, "▁create": 3172, "▁tone": 3173, "?!": 3174, "▁powerful": 3175, "▁massive": 3176, "▁provide": 3177, "▁location": 3178, "▁matters": 3179, "▁directly": 3180, "ably": 3181, "arden": 3182, "▁apparently": 3183, "▁careful": 3184, "▁rather": 3185, "ibly": 3186, "▁forget": 3187, "▁pair": 3188, "▁chips": 3189, "▁article": 3190, "▁damn": 3191, "▁dele": 3192, "▁upgrade": 3193, "▁position": 3194, "resh": 3195, "▁turning": 3196, "▁falls": 3197, "▁older": 3198, "▁hd": 3199, "▁rum": 3200, "▁guilty": 3201, "▁unit": 3202, "▁europe": 3203, "▁worse": 3204, "▁annoying": 3205, "▁holiday": 3206, "▁joke": 3207, "▁significant": 3208, "kin": 3209, "▁3.": 3210, "▁attend": 3211, "iece": 3212, "oms": 3213, "▁either": 3214, "▁screens": 3215, "▁teach": 3216, "▁convers": 3217, "▁fine": 3218, "▁period": 3219, "▁repl": 3220, "▁events": 3221, "▁tries": 3222, "▁anywhere": 3223, "▁purchase": 3224, "▁shouldn": 3225, "▁exc": 3226, "▁individual": 3227, "▁cancell": 3228, "▁ru": 3229, "▁dual": 3230, "▁becomes": 3231, "▁proof": 3232, "▁shel": 3233, "▁offering": 3234, "▁deliver": 3235, "▁style": 3236, "▁pred": 3237, "▁body": 3238, "▁driving": 3239, "allow": 3240, "▁doors": 3241, "▁fact": 3242, "▁hear": 3243, "▁stories": 3244, "▁scheme": 3245, "▁floor": 3246, "▁disapp": 3247, "fs": 3248, "weet": 3249, "▁refuse": 3250, "iers": 3251, "▁chair": 3252, "▁mel": 3253, "▁arg": 3254, "▁candid": 3255, "▁histor": 3256, "lam": 3257, "▁smith": 3258, "▁letting": 3259, "▁ryan": 3260, "ince": 3261, "▁players": 3262, "▁specific": 3263, "▁hum": 3264, "ili": 3265, "ona": 3266, "mp": 3267, "▁taxes": 3268, "osure": 3269, "▁fur": 3270, "onest": 3271, "▁regret": 3272, "inating": 3273, "pri": 3274, "orter": 3275, "▁involved": 3276, "ructure": 3277, "ady": 3278, "aughter": 3279, "▁invol": 3280, "▁vir": 3281, "▁signing": 3282, "hood": 3283, "▁dangerous": 3284, "▁luck": 3285, "▁gir": 3286, "oooo": 3287, "ooo": 3288, "aky": 3289, "▁electric": 3290, "▁fruit": 3291, "▁mut": 3292, "ander": 3293, "???": 3294, "rist": 3295, "▁stuck": 3296, "aaaa": 3297, "▁proud": 3298, "▁spl": 3299, "▁scared": 3300, "▁ghost": 3301, "▁lazy": 3302, "▁loves": 3303, "▁confused": 3304, "▁cars": 3305, "▁knowing": 3306, "▁tour": 3307, "▁walked": 3308, "▁forg": 3309, "▁belong": 3310, "▁emot": 3311, "▁terr": 3312, "▁prove": 3313, "igan": 3314, "igs": 3315, "ological": 3316, "▁itself": 3317, "quest": 3318, "▁holl": 3319, "▁atl": 3320, "ecraft": 3321, "arth": 3322, "▁techn": 3323, "ocol": 3324, "ross": 3325, "limited": 3326, "▁english": 3327, "▁steam": 3328, "▁ama": 3329, "▁frame": 3330, "▁choos": 3331, "▁ms": 3332, "▁spr": 3333, "▁click": 3334, "▁alternative": 3335, "asp": 3336, "▁trait": 3337, "vin": 3338, "base": 3339, "▁beating": 3340, "well": 3341, "por": 3342, "▁within": 3343, "▁sab": 3344, "ola": 3345, "▁clos": 3346, "/10": 3347, "▁mirror": 3348, "▁european": 3349, "utch": 3350, "ums": 3351, "▁cs": 3352, "▁proper": 3353, "▁journal": 3354, "▁form": 3355, "▁designed": 3356, "▁wearing": 3357, "▁graph": 3358, "ension": 3359, "▁recent": 3360, "▁performance": 3361, "bel": 3362, "▁peace": 3363, "mm": 3364, "▁aut": 3365, "attern": 3366, "str": 3367, "reddit": 3368, "▁experiment": 3369, "order": 3370, "▁exper": 3371, "ule": 3372, "▁switching": 3373, "eel": 3374, "▁plug": 3375, "▁jan": 3376, "▁train": 3377, "▁wind": 3378, "rets": 3379, "90": 3380, "▁rock": 3381, "empt": 3382, "▁names": 3383, "rog": 3384, "yes": 3385, "▁song": 3386, "▁math": 3387, "▁advanced": 3388, "osp": 3389, "▁energy": 3390, "standing": 3391, "▁split": 3392, "▁canadian": 3393, "▁throw": 3394, "ns": 3395, "▁helps": 3396, "▁serious": 3397, "▁emergency": 3398, "▁flight": 3399, "▁scroll": 3400, "▁quarter": 3401, "▁profit": 3402, "olt": 3403, "pped": 3404, "▁theme": 3405, "▁engineering": 3406, "▁begin": 3407, "ners": 3408, "▁eas": 3409, "▁career": 3410, "▁tar": 3411, "▁prev": 3412, "▁color": 3413, "▁purpose": 3414, "▁risk": 3415, "▁error": 3416, "anger": 3417, "▁german": 3418, "▁mc": 3419, "▁played": 3420, "▁phot": 3421, "ipping": 3422, "▁tight": 3423, "ety": 3424, "erat": 3425, "▁study": 3426, "▁teacher": 3427, "▁simply": 3428, "▁delivery": 3429, "▁session": 3430, "▁digital": 3431, "3,": 3432, "▁0": 3433, "acity": 3434, "▁mont": 3435, "iot": 3436, "▁diss": 3437, "anda": 3438, "fe": 3439, "ements": 3440, "irty": 3441, "dit": 3442, "▁germany": 3443, "▁fear": 3444, "ined": 3445, "ppy": 3446, "▁adding": 3447, "ances": 3448, "▁obs": 3449, "▁loved": 3450, "reens": 3451, "▁adult": 3452, "▁transfer": 3453, "▁mario": 3454, "▁occ": 3455, "▁happen": 3456, "▁builds": 3457, "▁ol": 3458, "acement": 3459, "▁effective": 3460, "▁delete": 3461, "ober": 3462, "▁1/": 3463, "▁word": 3464, "▁systems": 3465, "▁random": 3466, "eat": 3467, "▁content": 3468, "field": 3469, "▁means": 3470, "▁similar": 3471, "▁drinking": 3472, "▁advantage": 3473, "▁total": 3474, "▁forever": 3475, "▁matt": 3476, "fc": 3477, "▁sound": 3478, "▁usually": 3479, "▁base": 3480, "▁mid": 3481, "ummy": 3482, "▁sugar": 3483, "asc": 3484, "▁increasing": 3485, "▁gain": 3486, "▁jim": 3487, "▁weather": 3488, "▁blame": 3489, "▁removing": 3490, "▁aggressive": 3491, "▁ground": 3492, "▁appoint": 3493, "▁table": 3494, "▁controll": 3495, "▁anyway": 3496, "▁motor": 3497, "▁mor": 3498, "▁leader": 3499, "oday": 3500, "▁loud": 3501, "check": 3502, "erences": 3503, "▁above": 3504, "▁according": 3505, "▁warning": 3506, "▁extra": 3507, "▁premium": 3508, "▁tape": 3509, "▁bath": 3510, "▁compared": 3511, "▁counter": 3512, "▁exchange": 3513, "eech": 3514, "bow": 3515, "▁radio": 3516, "▁lif": 3517, "▁rout": 3518, "ready": 3519, "▁oblig": 3520, "▁watching": 3521, "▁scan": 3522, "▁prof": 3523, "▁possibly": 3524, "▁realized": 3525, "others": 3526, "▁plant": 3527, "▁separate": 3528, "▁enjoying": 3529, "iday": 3530, "ser": 3531, "▁recording": 3532, "▁horrible": 3533, "▁tonight": 3534, "▁pra": 3535, "▁university": 3536, "▁resist": 3537, "▁expensive": 3538, "oos": 3539, "▁ship": 3540, "▁suck": 3541, "▁frust": 3542, "▁staying": 3543, "▁upgr": 3544, "▁sense": 3545, "▁tag": 3546, "▁improved": 3547, "install": 3548, "▁pink": 3549, "▁definitely": 3550, "▁27": 3551, "▁flat": 3552, "▁gotten": 3553, "▁cant": 3554, "terday": 3555, "▁stable": 3556, "▁teams": 3557, "▁losing": 3558, "4,": 3559, "▁keys": 3560, "▁incredibly": 3561, "▁beginning": 3562, "oes": 3563, "ording": 3564, "ada": 3565, "▁xd": 3566, ",\"": 3567, "▁fam": 3568, "▁yourself": 3569, "car": 3570, "▁tips": 3571, "▁mention": 3572, "▁cuts": 3573, "▁couldn": 3574, "▁shell": 3575, "▁friday": 3576, "▁plot": 3577, "▁iss": 3578, "some": 3579, "uing": 3580, "▁failure": 3581, "▁haw": 3582, "aters": 3583, "meric": 3584, "▁decision": 3585, "▁hour": 3586, "▁associ": 3587, "▁acting": 3588, "fore": 3589, "who": 3590, "▁polic": 3591, "▁treatment": 3592, "▁ped": 3593, "▁alt": 3594, "ocr": 3595, "▁gear": 3596, "▁correct": 3597, "▁ident": 3598, "▁lunch": 3599, "▁suggested": 3600, "riend": 3601, "▁doubt": 3602, "uel": 3603, "bu": 3604, "▁punish": 3605, "▁diagn": 3606, "zy": 3607, "li": 3608, "see": 3609, "▁grass": 3610, "ags": 3611, "▁shake": 3612, "▁tank": 3613, "▁yo": 3614, ".....": 3615, "▁hanging": 3616, "▁cup": 3617, "▁rude": 3618, "▁sweet": 3619, "▁sit": 3620, "▁genius": 3621, "▁doesnt": 3622, "▁;": 3623, "▁upon": 3624, "▁spoil": 3625, "▁feet": 3626, "▁wood": 3627, "▁drink": 3628, "▁thoughts": 3629, "▁trash": 3630, "▁showed": 3631, "▁whenever": 3632, "▁cou": 3633, "parent": 3634, "▁attached": 3635, "▁looked": 3636, "▁arr": 3637, "▁nowhere": 3638, "unk": 3639, "▁wanting": 3640, "▁threw": 3641, "▁interested": 3642, "▁medic": 3643, "▁happening": 3644, "▁covered": 3645, "ession": 3646, "vere": 3647, "▁poss": 3648, "▁paint": 3649, "▁fault": 3650, "▁strange": 3651, "▁eu": 3652, "aves": 3653, "made": 3654, "▁trend": 3655, "▁library": 3656, "▁flash": 3657, "ashed": 3658, "▁fac": 3659, "lc": 3660, "▁words": 3661, "▁analy": 3662, "ores": 3663, "sey": 3664, "▁function": 3665, "▁upd": 3666, "uting": 3667, "free": 3668, "▁scient": 3669, "iant": 3670, "joy": 3671, "ties": 3672, "▁logo": 3673, "▁plane": 3674, "▁beats": 3675, "▁pir": 3676, "atur": 3677, "asy": 3678, "ye": 3679, "▁installed": 3680, "that": 3681, "▁traffic": 3682, "ya": 3683, "▁mart": 3684, "▁explo": 3685, "▁speak": 3686, "ii": 3687, "▁disp": 3688, "iculous": 3689, "▁japanese": 3690, "born": 3691, "▁faith": 3692, "▁learned": 3693, "pad": 3694, "▁respons": 3695, "sw": 3696, "▁barely": 3697, "alt": 3698, "ography": 3699, "▁ii": 3700, "▁500": 3701, "▁detect": 3702, "idge": 3703, "ding": 3704, "▁therapy": 3705, "▁entirely": 3706, "▁average": 3707, "▁motion": 3708, "▁bob": 3709, "▁print": 3710, "▁cast": 3711, "▁upload": 3712, "ully": 3713, "▁van": 3714, "▁character": 3715, "▁type": 3716, "▁tb": 3717, "▁technical": 3718, "char": 3719, "▁encour": 3720, "▁300": 3721, "▁standard": 3722, "▁agent": 3723, "▁tot": 3724, "tle": 3725, "off": 3726, "based": 3727, "▁egg": 3728, "anes": 3729, "▁sam": 3730, "star": 3731, "mate": 3732, "▁passive": 3733, "ley": 3734, "oly": 3735, "▁mp": 3736, "▁pow": 3737, "▁dat": 3738, "▁ner": 3739, "▁example": 3740, "sk": 3741, "ci": 3742, "irts": 3743, "▁100%": 3744, "han": 3745, "▁ice": 3746, "verage": 3747, "▁troll": 3748, "▁oc": 3749, "fit": 3750, "ivil": 3751, "ople": 3752, "▁workers": 3753, "▁salary": 3754, "▁unt": 3755, "▁rid": 3756, "ford": 3757, "uc": 3758, "hot": 3759, "watch": 3760, "▁fellow": 3761, "▁scott": 3762, "▁values": 3763, "▁winter": 3764, "▁danger": 3765, "uh": 3766, "ubs": 3767, "▁intern": 3768, "▁christ": 3769, "▁falling": 3770, "aken": 3771, "▁stays": 3772, "ctors": 3773, "ucks": 3774, "rian": 3775, "▁nobody": 3776, "▁bars": 3777, "▁0.": 3778, "▁chance": 3779, "▁native": 3780, "▁types": 3781, "wall": 3782, "▁grown": 3783, "ether": 3784, "▁3,": 3785, "orry": 3786, "▁acce": 3787, "whel": 3788, "thing": 3789, "▁vac": 3790, "▁farm": 3791, "▁response": 3792, "▁reverse": 3793, "izer": 3794, "▁prop": 3795, "▁entertain": 3796, "▁cards": 3797, "gging": 3798, "▁ways": 3799, "▁~": 3800, "▁common": 3801, "aching": 3802, "▁leading": 3803, "▁connect": 3804, "▁favor": 3805, "▁complain": 3806, "▁answers": 3807, "▁supply": 3808, "▁gra": 3809, "isf": 3810, "▁groups": 3811, "▁feedback": 3812, "▁quot": 3813, "▁dial": 3814, "ggest": 3815, "▁prices": 3816, "ints": 3817, "ocks": 3818, "▁growing": 3819, "▁rear": 3820, "▁campus": 3821, "▁connected": 3822, "▁annoy": 3823, "▁bringing": 3824, "▁status": 3825, "▁intention": 3826, "▁supporting": 3827, "▁management": 3828, "▁ze": 3829, "▁closer": 3830, "uality": 3831, "▁seconds": 3832, "orrow": 3833, "ressing": 3834, "▁area": 3835, "sl": 3836, "andom": 3837, "▁compl": 3838, "▁drag": 3839, "": 3840, "▁appear": 3841, "anges": 3842, "▁useful": 3843, "▁gall": 3844, "ples": 3845, "expected": 3846, "▁speakers": 3847, "▁bund": 3848, "apt": 3849, "anks": 3850, "▁headphones": 3851, "afe": 3852, "▁hom": 3853, "▁arch": 3854, "▁limits": 3855, "▁standing": 3856, "▁mic": 3857, "▁hopefully": 3858, "just": 3859, "▁impro": 3860, "▁bright": 3861, "▁draw": 3862, "akers": 3863, "omet": 3864, "▁gift": 3865, "ano": 3866, "▁creating": 3867, "was": 3868, "▁plays": 3869, "▁piece": 3870, "itor": 3871, "▁butter": 3872, "▁equ": 3873, "▁afterwards": 3874, "▁mini": 3875, "oiler": 3876, "lig": 3877, "▁beyond": 3878, "oken": 3879, "▁blocks": 3880, "▁totally": 3881, "▁refund": 3882, "ines": 3883, "▁pushed": 3884, "▁adapt": 3885, "▁reached": 3886, "▁behavior": 3887, "▁direction": 3888, "▁severe": 3889, "press": 3890, "▁allowing": 3891, "▁subreddit": 3892, "▁race": 3893, "▁thread": 3894, ".)": 3895, "▁french": 3896, "▁grew": 3897, "▁rick": 3898, "uls": 3899, "▁expectations": 3900, "▁unique": 3901, "▁desper": 3902, "▁load": 3903, "▁stab": 3904, "▁watched": 3905, "▁appeal": 3906, "more": 3907, "▁prior": 3908, "tt": 3909, "▁mixed": 3910, "!)": 3911, "▁heavy": 3912, "▁opening": 3913, "▁stat": 3914, "▁dumb": 3915, "iled": 3916, "▁estab": 3917, "100": 3918, "▁opp": 3919, "▁frequ": 3920, "▁lift": 3921, "iny": 3922, "inton": 3923, "overy": 3924, "ieve": 3925, "▁mich": 3926, "▁blast": 3927, "▁negative": 3928, "▁ka": 3929, "▁incom": 3930, "iel": 3931, "etch": 3932, "▁benefit": 3933, "▁straw": 3934, "▁cb": 3935, "▁troph": 3936, "▁raised": 3937, "▁nc": 3938, "illy": 3939, "▁zero": 3940, "rie": 3941, "kers": 3942, "ene": 3943, "▁disg": 3944, "▁crowd": 3945, "▁reb": 3946, "▁sched": 3947, "▁corpor": 3948, "night": 3949, "▁swed": 3950, "▁seemed": 3951, "▁env": 3952, "▁shared": 3953, "aved": 3954, "▁kevin": 3955, "▁candidate": 3956, "▁oil": 3957, "▁scream": 3958, "-5": 3959, "▁inn": 3960, "aul": 3961, "avy": 3962, "▁badly": 3963, "▁reaction": 3964, "aine": 3965, "▁ending": 3966, "ucky": 3967, "aven": 3968, "▁decide": 3969, "▁cats": 3970, "▁coin": 3971, "▁kit": 3972, "good": 3973, "mmm": 3974, "▁steps": 3975, "▁taste": 3976, "ka": 3977, "▁warm": 3978, "▁potato": 3979, "rr": 3980, "mas": 3981, "▁toilet": 3982, "▁bowl": 3983, "▁foot": 3984, "▁length": 3985, "ries": 3986, "▁comfort": 3987, "hhh": 3988, "▁milk": 3989, "▁couch": 3990, "eared": 3991, "▁cheese": 3992, "▁surprise": 3993, "▁rub": 3994, "▁suspect": 3995, "▁lab": 3996, "▁lord": 3997, "ahah": 3998, "▁:/": 3999, "¡": 4000, "▁react": 4001, "rel": 4002, "▁born": 4003, "▁choice": 4004, "▁relationships": 4005, "▁depressed": 4006, "▁included": 4007, "▁okay": 4008, "▁mental": 4009, "▁towards": 4010, "▁meth": 4011, "▁dc": 4012, "▁chain": 4013, "▁suff": 4014, "▁however": 4015, "▁items": 4016, "van": 4017, "▁poison": 4018, "▁ticket": 4019, "▁department": 4020, "▁facing": 4021, "▁wage": 4022, "▁fing": 4023, "inst": 4024, "ku": 4025, "log": 4026, "▁concept": 4027, "▁wo": 4028, "ulations": 4029, "▁lines": 4030, "sole": 4031, "▁fool": 4032, "▁90%": 4033, "imin": 4034, "▁ach": 4035, "through": 4036, "ulator": 4037, "▁written": 4038, "gy": 4039, "▁creat": 4040, "▁feed": 4041, "run": 4042, "shit": 4043, "angu": 4044, "▁cal": 4045, "▁awkward": 4046, "▁spam": 4047, "▁taught": 4048, "ulting": 4049, "▁monitor": 4050, "▁figure": 4051, "▁maps": 4052, "▁broad": 4053, "▁wide": 4054, "▁defense": 4055, "▁rocket": 4056, "▁prime": 4057, "▁contain": 4058, "▁profile": 4059, "▁trave": 4060, "▁lesson": 4061, "▁increased": 4062, "▁wed": 4063, "raph": 4064, "▁plastic": 4065, "chan": 4066, "isa": 4067, "aco": 4068, "▁alex": 4069, "cho": 4070, "inting": 4071, "▁map": 4072, "raft": 4073, "iven": 4074, "▁desk": 4075, "▁drugs": 4076, "ledge": 4077, "▁uses": 4078, "lor": 4079, "bt": 4080, "ucking": 4081, "rors": 4082, "▁finish": 4083, "▁unfortunately": 4084, "▁posting": 4085, "icing": 4086, "erator": 4087, "▁commun": 4088, "▁format": 4089, "▁prec": 4090, "▁holes": 4091, "pack": 4092, "gif": 4093, "ynam": 4094, "▁purch": 4095, "▁chip": 4096, "▁import": 4097, "▁annoyed": 4098, "stand": 4099, "▁aim": 4100, "▁lands": 4101, "▁sea": 4102, "▁aggress": 4103, "▁background": 4104, "▁depart": 4105, "▁redu": 4106, "▁goodbye": 4107, "▁cooper": 4108, "house": 4109, "▁bullshit": 4110, "ception": 4111, "ply": 4112, "▁cre": 4113, "uro": 4114, "alog": 4115, "▁band": 4116, "▁pub": 4117, "▁lic": 4118, "▁tail": 4119, "▁minute": 4120, "▁evening": 4121, "^": 4122, "▁es": 4123, "▁emp": 4124, "▁memory": 4125, "stream": 4126, "▁relax": 4127, "▁tu": 4128, "▁micro": 4129, "▁jon": 4130, "▁empty": 4131, "▁applic": 4132, "uable": 4133, "abor": 4134, "ids": 4135, "▁calcul": 4136, "ooper": 4137, "▁flaw": 4138, "▁leads": 4139, "▁successful": 4140, "▁perman": 4141, "orable": 4142, "▁domin": 4143, "yed": 4144, "▁fat": 4145, "▁island": 4146, "▁notes": 4147, "oose": 4148, "arly": 4149, "irc": 4150, "▁holds": 4151, "▁especially": 4152, "▁culture": 4153, "aga": 4154, "▁blood": 4155, "ned": 4156, "▁opportunity": 4157, "▁weapons": 4158, "▁competition": 4159, "▁weak": 4160, "▁related": 4161, "▁missed": 4162, "pan": 4163, "pes": 4164, "▁fps": 4165, "▁gender": 4166, "▁anim": 4167, "lines": 4168, "▁dm": 4169, "▁fans": 4170, "▁aud": 4171, "ences": 4172, "▁mistakes": 4173, "▁cities": 4174, "▁retail": 4175, "kn": 4176, "▁woke": 4177, "like": 4178, "▁toxic": 4179, "fall": 4180, "rect": 4181, "vie": 4182, "oles": 4183, "▁catch": 4184, "roc": 4185, "ki": 4186, "▁tracking": 4187, "▁whatever": 4188, "aint": 4189, "▁stress": 4190, "▁silly": 4191, "conom": 4192, "iment": 4193, "loc": 4194, "ste": 4195, "▁owned": 4196, "▁regularly": 4197, "▁row": 4198, "▁demo": 4199, "thought": 4200, "▁volume": 4201, "▁others": 4202, "▁properly": 4203, "▁config": 4204, "rig": 4205, "▁tower": 4206, "▁govern": 4207, "▁sorry": 4208, "▁funny": 4209, "▁primary": 4210, "▁avoid": 4211, "▁mult": 4212, "▁effect": 4213, "▁struggle": 4214, "▁complicated": 4215, "▁bite": 4216, "▁liked": 4217, "ken": 4218, "▁etc": 4219, "hard": 4220, "▁consistent": 4221, "▁exciting": 4222, "▁reality": 4223, "▁predict": 4224, "onnect": 4225, "▁views": 4226, "bon": 4227, "▁score": 4228, "▁album": 4229, "▁reference": 4230, "▁glasses": 4231, "py": 4232, "▁slower": 4233, "▁5-": 4234, "▁joined": 4235, "world": 4236, "▁physical": 4237, "▁measure": 4238, "▁interesting": 4239, "▁exclusive": 4240, "▁maintenance": 4241, "▁discount": 4242, "▁cable": 4243, "asure": 4244, "▁descri": 4245, "▁usage": 4246, "▁stage": 4247, "▁streaming": 4248, "?)": 4249, "▁bullet": 4250, "▁imagine": 4251, "▁pal": 4252, "▁settings": 4253, "▁lag": 4254, "▁addition": 4255, "pec": 4256, "▁boost": 4257, "▁multi": 4258, "▁mill": 4259, "▁swing": 4260, "itions": 4261, "▁gif": 4262, "▁gorgeous": 4263, "▁syn": 4264, "▁input": 4265, "▁glass": 4266, "▁parts": 4267, "▁colour": 4268, "▁trial": 4269, "▁typ": 4270, "▁sounds": 4271, "ength": 4272, "▁excited": 4273, "utter": 4274, "▁swim": 4275, "yr": 4276, "related": 4277, "▁helpful": 4278, "▁scale": 4279, "▁footage": 4280, "▁stores": 4281, "▁attach": 4282, "ddy": 4283, "▁mountain": 4284, "pn": 4285, "keep": 4286, "▁creepy": 4287, "▁insp": 4288, "▁pizza": 4289, "▁convince": 4290, "lee": 4291, "▁ded": 4292, "ipp": 4293, "▁section": 4294, "▁further": 4295, "▁causes": 4296, "▁fill": 4297, "▁bottom": 4298, "▁avail": 4299, "▁sund": 4300, "very": 4301, "▁pointed": 4302, "▁ra": 4303, "ato": 4304, "▁complaining": 4305, "▁draft": 4306, "▁fashion": 4307, "▁lately": 4308, "▁separ": 4309, "▁comic": 4310, "▁receive": 4311, "ito": 4312, "ashes": 4313, "inally": 4314, "▁among": 4315, "▁named": 4316, "▁kore": 4317, "▁highest": 4318, "selves": 4319, "when": 4320, "▁somehow": 4321, "▁nightm": 4322, "bet": 4323, "▁locked": 4324, "▁fees": 4325, "▁regul": 4326, "inese": 4327, "▁regard": 4328, "▁range": 4329, "✔": 4330, "\"?": 4331, "▁certain": 4332, "▁places": 4333, "▁basically": 4334, "xy": 4335, "▁guess": 4336, "▁bag": 4337, "▁bab": 4338, "▁outfit": 4339, "▁af": 4340, "▁remain": 4341, "▁exist": 4342, "▁fan": 4343, "1,": 4344, "▁reduce": 4345, "▁burn": 4346, "▁sunday": 4347, "▁highly": 4348, "“": 4349, "ych": 4350, "▁lower": 4351, "▁potentially": 4352, "▁gri": 4353, "▁afford": 4354, "▁tests": 4355, "▁aust": 4356, "ights": 4357, "▁instruct": 4358, "▁requ": 4359, "▁artist": 4360, "▁explanation": 4361, "▁permit": 4362, "usting": 4363, "▁thrown": 4364, "lands": 4365, "▁ruin": 4366, "▁explain": 4367, "▁aspect": 4368, "▁placed": 4369, "▁saturday": 4370, "▁football": 4371, "▁prepared": 4372, "▁emer": 4373, "▁freaking": 4374, "▁monday": 4375, "vision": 4376, "ients": 4377, "alf": 4378, "eme": 4379, "▁jesus": 4380, "ifying": 4381, "▁150": 4382, "▁dirt": 4383, "▁reput": 4384, "▁toward": 4385, "esh": 4386, "▁pit": 4387, "rugg": 4388, "▁sandwich": 4389, "▁financial": 4390, "▁educ": 4391, "▁corner": 4392, "▁dance": 4393, "▁fest": 4394, "aws": 4395, "gu": 4396, "▁hurts": 4397, "▁shoes": 4398, "▁sun": 4399, "▁ride": 4400, "▁fab": 4401, "▁keeping": 4402, "▁hung": 4403, "▁eating": 4404, "ho": 4405, "▁dont": 4406, "▁picking": 4407, "▁injury": 4408, "onder": 4409, "▁appreciated": 4410, "▁alcohol": 4411, "▁dee": 4412, "▁pants": 4413, "▁fish": 4414, "▁joking": 4415, "▁except": 4416, "ancing": 4417, "▁bitch": 4418, "▁hol": 4419, "'.": 4420, "▁somebody": 4421, "esome": 4422, "▁comfortable": 4423, "▁dick": 4424, "▁attract": 4425, "▁jer": 4426, "▁hr": 4427, "▁dress": 4428, "▁attractive": 4429, "▁weight": 4430, "▁tattoo": 4431, "▁pics": 4432, "▁deserve": 4433, "▁stated": 4434, "kward": 4435, "▁kicked": 4436, "▁anxiety": 4437, "▁smell": 4438, "▁patient": 4439, "▁grade": 4440, "▁bother": 4441, "▁dealing": 4442, "▁talked": 4443, "ait": 4444, "▁afraid": 4445, "oub": 4446, "▁walls": 4447, "urance": 4448, "▁camp": 4449, "▁picked": 4450, "▁animal": 4451, "▁horse": 4452, "▁cutting": 4453, "▁exerc": 4454, "oma": 4455, "▁inj": 4456, "▁miles": 4457, "▁shop": 4458, "▁psych": 4459, "▁restaurant": 4460, "▁reasons": 4461, "ario": 4462, "▁blown": 4463, "iat": 4464, "▁minimum": 4465, "▁supposed": 4466, "▁smo": 4467, "▁ment": 4468, "▁bottle": 4469, "▁circ": 4470, "▁resources": 4471, "▁dragon": 4472, "yond": 4473, "▁moon": 4474, "ston": 4475, "▁movie": 4476, "sea": 4477, "-2": 4478, "▁bow": 4479, "▁elimin": 4480, "▁animals": 4481, "ca": 4482, "▁contrib": 4483, "pm": 4484, "icul": 4485, "▁instant": 4486, "▁champion": 4487, "▁south": 4488, "▁upvote": 4489, "▁cd": 4490, "▁visual": 4491, "▁signal": 4492, "▁manage": 4493, "oon": 4494, "vp": 4495, "▁machines": 4496, "▁explained": 4497, "da": 4498, "▁selection": 4499, "host": 4500, "iqu": 4501, "▁crypt": 4502, "▁ups": 4503, "ellow": 4504, "▁pix": 4505, "bay": 4506, "cel": 4507, "▁pages": 4508, "▁field": 4509, "ther": 4510, "▁arc": 4511, "▁stayed": 4512, "▁survive": 4513, "agn": 4514, "▁maintain": 4515, "osen": 4516, "▁boxes": 4517, "oil": 4518, "utions": 4519, "izzard": 4520, "▁environment": 4521, "ora": 4522, "▁roman": 4523, "inter": 4524, "▁`": 4525, "soft": 4526, "▁ep": 4527, "▁pays": 4528, "▁eyes": 4529, "▁tl": 4530, "▁cases": 4531, "uke": 4532, "uding": 4533, "▁langu": 4534, "▁manip": 4535, "▁calm": 4536, "▁wars": 4537, "antic": 4538, "▁london": 4539, "ivid": 4540, "▁99": 4541, "▁bru": 4542, "aze": 4543, "▁weekly": 4544, "inite": 4545, "≠": 4546, "lla": 4547, "spect": 4548, "gun": 4549, "▁situations": 4550, "mber": 4551, "▁ble": 4552, "iod": 4553, "▁reply": 4554, "▁rule": 4555, "▁brows": 4556, "bble": 4557, "ses": 4558, "▁produ": 4559, "▁irrelevant": 4560, "elled": 4561, "icit": 4562, "cos": 4563, "▁#1": 4564, "€": 4565, "▁gi": 4566, "▁accompl": 4567, "▁autom": 4568, "▁sf": 4569, "▁chicago": 4570, "▁evol": 4571, "gl": 4572, "▁schedule": 4573, "oshop": 4574, "amm": 4575, "lex": 4576, "▁critical": 4577, "izz": 4578, "▁drives": 4579, "enty": 4580, "▁flu": 4581, "▁animation": 4582, "▁ord": 4583, "▁wash": 4584, "▁giant": 4585, "▁bri": 4586, "wr": 4587, "▁pers": 4588, "iration": 4589, "▁2000": 4590, "▁extreme": 4591, "▁gm": 4592, "icle": 4593, "▁brown": 4594, "▁cart": 4595, "▁2,": 4596, "▁saf": 4597, "pose": 4598, "▁drinks": 4599, "▁titan": 4600, "inum": 4601, "▁lay": 4602, "▁cheaper": 4603, "▁dan": 4604, "▁present": 4605, "eration": 4606, "▁challeng": 4607, "▁script": 4608, "▁detail": 4609, "▁hosp": 4610, "▁ax": 4611, "▁rele": 4612, "build": 4613, "jo": 4614, "ede": 4615, "▁label": 4616, "▁famous": 4617, "▁1,": 4618, "▁natural": 4619, "▁factory": 4620, "▁menu": 4621, "▁materials": 4622, "▁loo": 4623, "▁thick": 4624, "▁worlds": 4625, "▁spirit": 4626, "▁crap": 4627, "▁holy": 4628, "▁adjust": 4629, "▁lighting": 4630, "▁ignor": 4631, "▁gam": 4632, "▁capable": 4633, "▁clim": 4634, "▁vend": 4635, "▁opt": 4636, "ously": 4637, "▁pace": 4638, "ext": 4639, "▁argue": 4640, "▁strategy": 4641, "▁nor": 4642, "▁devs": 4643, "▁effects": 4644, "▁skip": 4645, "▁10%": 4646, "▁philosoph": 4647, "@": 4648, "▁randomly": 4649, "▁songs": 4650, "▁wallet": 4651, "vo": 4652, "paper": 4653, "▁drawing": 4654, "▁highlight": 4655, "▁method": 4656, "▁colors": 4657, "▁acknow": 4658, "▁shipping": 4659, "vember": 4660, "idays": 4661, "▁anybody": 4662, "▁competitive": 4663, "▁cleaning": 4664, "▁station": 4665, "▁pitch": 4666, "▁existing": 4667, "▁easier": 4668, "▁core": 4669, "▁internal": 4670, "▁dur": 4671, "▁heat": 4672, "▁everyday": 4673, "▁glo": 4674, "▁restrict": 4675, "▁eventually": 4676, "▁fee": 4677, "zing": 4678, "▁runs": 4679, "azon": 4680, "▁honest": 4681, "▁appearance": 4682, "▁vari": 4683, "▁easily": 4684, "▁artists": 4685, "▁material": 4686, "▁lapt": 4687, "▁ess": 4688, "bar": 4689, "▁below": 4690, "vi": 4691, "▁sometimes": 4692, "andon": 4693, "erent": 4694, "▁global": 4695, "ocking": 4696, "▁legitimate": 4697, "‪": 4698, "‬": 4699, "ival": 4700, "ient": 4701, "▁drivers": 4702, "iew": 4703, "ese": 4704, "itors": 4705, "▁newer": 4706, "▁filter": 4707, "▁professional": 4708, "▁hobby": 4709, "▁legit": 4710, "▁compet": 4711, "▁truth": 4712, "▁keyboard": 4713, "known": 4714, "▁hated": 4715, "ufact": 4716, "▁commercial": 4717, "arp": 4718, "▁double": 4719, "▁conversation": 4720, "▁versions": 4721, "▁silver": 4722, "▁services": 4723, "▁string": 4724, "▁tem": 4725, "▁significantly": 4726, "▁altern": 4727, "▁thin": 4728, "ertain": 4729, "while": 4730, "▁comparison": 4731, "lished": 4732, "▁lack": 4733, "▁compat": 4734, "▁stopping": 4735, "̄": 4736, "▁transport": 4737, "▁mand": 4738, "▁poorly": 4739, "▁perform": 4740, "′": 4741, "▁cheap": 4742, "▁levels": 4743, "inity": 4744, "▁loading": 4745, "•": 4746, "▁pm": 4747, "▁wonderful": 4748, "▁accur": 4749, "▁optim": 4750, "▁agree": 4751, "▁blue": 4752, "▁aren": 4753, "▁;)": 4754, "▁hundreds": 4755, "▁relevant": 4756, "can": 4757, "▁backup": 4758, "▁actual": 4759, "▁wond": 4760, "▁pattern": 4761, "boot": 4762, "▁skins": 4763, "▁challenge": 4764, "▁bot": 4765, "▁progress": 4766, "▁setting": 4767, "▁incorrect": 4768, "▁symbol": 4769, "ಠ": 4770, "▁journey": 4771, "▁recall": 4772, "▁collection": 4773, "▁2)": 4774, "▁ideas": 4775, "▁breath": 4776, "▁shown": 4777, "▁pill": 4778, "▁ing": 4779, "▁regular": 4780, "▁celebr": 4781, "▁season": 4782, "▁suggestions": 4783, "▁noise": 4784, "▁tack": 4785, "▁units": 4786, "▁goals": 4787, "your": 4788, "wise": 4789, "▁six": 4790, "stal": 4791, "▁chann": 4792, "▁subst": 4793, "▁became": 4794, "▁queue": 4795, "▁bunch": 4796, "▁tie": 4797, "▁handed": 4798, "▁disney": 4799, "water": 4800, "▁influence": 4801, "wards": 4802, "▁shout": 4803, "▁existence": 4804, "ogue": 4805, "▁funn": 4806, "▁remem": 4807, "bered": 4808, "▁capital": 4809, "awn": 4810, "win": 4811, "orrect": 4812, "uesday": 4813, "mor": 4814, "▁ken": 4815, "▁cit": 4816, "▁mem": 4817, "▁trigger": 4818, "▁independent": 4819, "elle": 4820, "▁ris": 4821, "▁electron": 4822, "▁normally": 4823, "agues": 4824, "▁mur": 4825, "life": 4826, "▁movement": 4827, "▁circumst": 4828, "▁opposite": 4829, "ael": 4830, "▁init": 4831, "▁econom": 4832, "vot": 4833, "▁laughing": 4834, "▁liber": 4835, "arma": 4836, "▁worries": 4837, "aut": 4838, "▁justify": 4839, "▁described": 4840, "medi": 4841, "iots": 4842, "▁wasted": 4843, "▁contr": 4844, "▁downtown": 4845, "ris": 4846, "iger": 4847, "urt": 4848, "▁mount": 4849, "▁iron": 4850, "▁automat": 4851, "▁cha": 4852, "▁passing": 4853, "▁mater": 4854, "▁opponent": 4855, "▁wil": 4856, "▁basketball": 4857, "itar": 4858, "edy": 4859, "▁kidding": 4860, "▁confirm": 4861, "▁loving": 4862, "▁deb": 4863, "▁polit": 4864, "imately": 4865, "▁realise": 4866, "▁aside": 4867, "▁concerns": 4868, "viously": 4869, "▁banner": 4870, "▁johnson": 4871, "▁spells": 4872, "ointing": 4873, "may": 4874, "▁treated": 4875, "ester": 4876, "stood": 4877, "▁intense": 4878, "▁vo": 4879, "stone": 4880, "ateg": 4881, "▁tele": 4882, "▁region": 4883, "▁lob": 4884, "uk": 4885, "▁ele": 4886, "olutely": 4887, "▁ky": 4888, "erate": 4889, "▁economy": 4890, "ategy": 4891, "ilar": 4892, "‘": 4893, "▁hadn": 4894, "ara": 4895, "▁desp": 4896, "otic": 4897, "▁appl": 4898, "resent": 4899, "▁shame": 4900, "▁decisions": 4901, "▁debate": 4902, "▁confl": 4903, "▁classes": 4904, "▁deals": 4905, "▁fasc": 4906, "ews": 4907, "▁distract": 4908, "▁tact": 4909, "▁context": 4910, "▁giveaway": 4911, "▁breakfast": 4912, "▁analysis": 4913, "▁prohib": 4914, "▁ages": 4915, "▁thumb": 4916, "***": 4917, "▁gent": 4918, "......": 4919, "▁vib": 4920, "eter": 4921, "umble": 4922, "▁happiness": 4923, "▁chicken": 4924, "▁training": 4925, "▁havent": 4926, "▁bud": 4927, "▁garbage": 4928, "▁dry": 4929, "▁symb": 4930, "▁champions": 4931, "▁juice": 4932, "▁fu": 4933, "▁bay": 4934, "▁scar": 4935, "▁emotions": 4936, "▁foll": 4937, "▁nose": 4938, "▁bell": 4939, "▁alive": 4940, "▁busy": 4941, "▁beach": 4942, "▁guard": 4943, "!!!!": 4944, "▁standards": 4945, "▁wonder": 4946, "▁friendly": 4947, "dom": 4948, "☁": 4949, "▁coff": 4950, "▁dun": 4951, "▁manual": 4952, "vy": 4953, "ko": 4954, "▁si": 4955, "wor": 4956, "▁squad": 4957, "▁ya": 4958, "sm": 4959, "yd": 4960, "▁thats": 4961, "▁encourage": 4962, "▁deserves": 4963, "▁congr": 4964, "▁heal": 4965, "hh": 4966, "▁bridge": 4967, "hn": 4968, "▁delicious": 4969, "▁becom": 4970, "▁bond": 4971, "▁mask": 4972, "▁evil": 4973, "ida": 4974, "▁hat": 4975, "▁kinds": 4976, "▁^": 4977, "▁talent": 4978, "▁dire": 4979, "▁boots": 4980, "▁bread": 4981, "▁nicely": 4982, "▁diff": 4983, "▁checking": 4984, "entially": 4985, "lly": 4986, "ahaha": 4987, "▁knee": 4988, "▁\\": 4989, "eez": 4990, "▁rad": 4991, "oooooooo": 4992, "▁rat": 4993, "▁explore": 4994, "bye": 4995, "uz": 4996, "atulations": 4997, "▁sauce": 4998, "▁neigh": 4999, "▁hmm": 5000, "▁requirements": 5001, "▁repost": 5002, "atoes": 5003, "text": 5004, "▁beauty": 5005, "▁boat": 5006, "front": 5007, "▁hes": 5008, "▁opinions": 5009, "▁vill": 5010, "hib": 5011, "son": 5012, "▁considered": 5013, "▁temper": 5014, "▁dude": 5015, "▁ash": 5016, "▁struggling": 5017, "▁roof": 5018, "▁odd": 5019, "▁somewhat": 5020, "asm": 5021, "▁mouth": 5022, "ided": 5023, "▁sitting": 5024, "▁mort": 5025, "▁experienced": 5026, "▁emotional": 5027, "▁argument": 5028, "ealous": 5029, "arc": 5030, "▁shock": 5031, "▁weigh": 5032, "▁financ": 5033, "▁depend": 5034, "▁dreams": 5035, "▁passion": 5036, "▁listen": 5037, "bro": 5038, "▁childhood": 5039, "▁healthy": 5040, "▁disgusting": 5041, "▁soul": 5042, "▁mate": 5043, "▁crying": 5044, "▁object": 5045, "▁forgot": 5046, "▁budget": 5047, "▁helping": 5048, "▁liking": 5049, "▁snap": 5050, "mates": 5051, "▁degree": 5052, "▁subject": 5053, "▁tatt": 5054, "▁infl": 5055, "rench": 5056, "ships": 5057, "▁communication": 5058, "▁sat": 5059, "▁religion": 5060, "▁putting": 5061, "ista": 5062, "▁resol": 5063, "▁ridiculous": 5064, "▁vegas": 5065, ")?": 5066, "▁rage": 5067, "▁unable": 5068, "▁flying": 5069, "▁pulling": 5070, "▁vol": 5071, "▁shirt": 5072, "▁definition": 5073, "▁grad": 5074, "▁document": 5075, "▁benefits": 5076, "arently": 5077, "▁blog": 5078, "▁pos": 5079, "leg": 5080, "”.": 5081, "▁plants": 5082, "chool": 5083, "▁film": 5084, "▁gate": 5085, "▁mechanic": 5086, "▁prob": 5087, "▁enter": 5088, "▁summon": 5089, "▁pret": 5090, "▁impossible": 5091, "sequ": 5092, "▁whoever": 5093, "▁submit": 5094, "▁guitar": 5095, "▁injuries": 5096, "▁affect": 5097, "▁disag": 5098, "▁item": 5099, "▁intent": 5100, "▁clothes": 5101, "▁walking": 5102, "▁drama": 5103, "▁sep": 5104, "nce": 5105, "▁route": 5106, "▁responsibility": 5107, "▁hous": 5108, "▁cho": 5109, "▁crew": 5110, "▁filled": 5111, "▁west": 5112, "▁injured": 5113, "▁clearly": 5114, "▁deck": 5115, "▁moderat": 5116, "▁surv": 5117, "▁favour": 5118, "erve": 5119, "▁politics": 5120, "▁east": 5121, "▁dropping": 5122, "▁multiplayer": 5123, "#": 5124, "▁elite": 5125, "▁et": 5126, "▁bots": 5127, "pool": 5128, "▁sucks": 5129, "change": 5130, "▁retire": 5131, "⁄": 5132, "▁characters": 5133, "▁decades": 5134, "rey": 5135, "▁gig": 5136, "▁hyper": 5137, "▁matches": 5138, "▁immedi": 5139, "▁mcd": 5140, "ername": 5141, "▁mouse": 5142, "▁fantasy": 5143, "zil": 5144, "incip": 5145, "nes": 5146, "una": 5147, "olen": 5148, "ighter": 5149, "▁je": 5150, "▁scoring": 5151, "maybe": 5152, "▁tied": 5153, "vity": 5154, "fuck": 5155, "aly": 5156, "▁arms": 5157, "`": 5158, "▁valid": 5159, "▁nons": 5160, "▁lou": 5161, "▁ell": 5162, "▁bb": 5163, "▁brush": 5164, "▁shadow": 5165, "there": 5166, "▁efficient": 5167, "▁pad": 5168, "▲": 5169, "▁nation": 5170, "▁lights": 5171, "▁series": 5172, "▁vers": 5173, "osphere": 5174, "uster": 5175, "gle": 5176, "▁gta": 5177, "▁exists": 5178, "▁horror": 5179, "men": 5180, "▁mig": 5181, "▁easiest": 5182, "ket": 5183, "▁pokemon": 5184, "▁shiny": 5185, "▁dra": 5186, "▁theory": 5187, "erc": 5188, "ias": 5189, "roph": 5190, "▁workout": 5191, "▁expert": 5192, "▁surprising": 5193, "▁vanilla": 5194, "▁cream": 5195, "▁cc": 5196, "▁hp": 5197, "▁painting": 5198, "▁pointless": 5199, "odes": 5200, "▁meal": 5201, "▁stars": 5202, "▁skill": 5203, "err": 5204, "itude": 5205, "▁reminds": 5206, "▁harm": 5207, "▁elements": 5208, "▁gang": 5209, "▁escape": 5210, "ague": 5211, "anch": 5212, "kend": 5213, "▁decent": 5214, "μ": 5215, "osis": 5216, "▁sight": 5217, "▁mission": 5218, "▁examples": 5219, "istically": 5220, "▁tit": 5221, "athy": 5222, "▁liquid": 5223, "▁solution": 5224, "▁congratulations": 5225, "▁priority": 5226, "▁simpl": 5227, "▁tempor": 5228, "▁raw": 5229, "▁dri": 5230, "▁360": 5231, "▁fly": 5232, "▁correctly": 5233, "ita": 5234, "odies": 5235, "hop": 5236, "▁shall": 5237, "inary": 5238, "sen": 5239, "▁paper": 5240, "▁spider": 5241, "alax": 5242, "▁trading": 5243, "▁hundred": 5244, "▁understood": 5245, "ala": 5246, "▁rot": 5247, "ountain": 5248, "▁chose": 5249, "▁species": 5250, "▁teachers": 5251, "▁sooner": 5252, "ht": 5253, "▁transl": 5254, "▁jour": 5255, "iron": 5256, "▁crow": 5257, "lying": 5258, "▁computers": 5259, "verse": 5260, "▁manag": 5261, "▁fa": 5262, "orious": 5263, "backs": 5264, "ollow": 5265, "orage": 5266, "▁writ": 5267, "verted": 5268, "▁smooth": 5269, "-0": 5270, "ample": 5271, "▁console": 5272, "upid": 5273, "▁conclus": 5274, "▁myth": 5275, "▁practice": 5276, "▁mob": 5277, "ikes": 5278, "osity": 5279, "▁marketing": 5280, "▁novel": 5281, "▁meant": 5282, "▁shots": 5283, "▁seg": 5284, "▁teaching": 5285, "▁schools": 5286, "▁strugg": 5287, "▁originally": 5288, "inn": 5289, "▁oppos": 5290, "▁recommend": 5291, "▁favourite": 5292, "▁square": 5293, "voting": 5294, "▁ton": 5295, "â": 5296, "▁combined": 5297, "=": 5298, "≈": 5299, "rome": 5300, "▁laughed": 5301, "▁accurate": 5302, "▁din": 5303, "▁dedicated": 5304, "▁occur": 5305, "▁roughly": 5306, "▁confident": 5307, "▁hoping": 5308, "▁impressed": 5309, "▁compete": 5310, "▁ke": 5311, "▁clever": 5312, "tit": 5313, "vable": 5314, "▁legend": 5315, "lda": 5316, "▁equivalent": 5317, "ibility": 5318, "⇧⌘": 5319, "⌘": 5320, "▁prefer": 5321, "▁titles": 5322, "▁comput": 5323, "▁sole": 5324, "▁hob": 5325, "▁shif": 5326, "▁steel": 5327, "▁mist": 5328, "‐": 5329, "▁brilliant": 5330, "▁sweat": 5331, "▁ships": 5332, "▁main": 5333, "▁frustrating": 5334, "▁upper": 5335, "▁bands": 5336, "▁theres": 5337, "▁necessary": 5338, "▁winning": 5339, "▁crit": 5340, "▁adap": 5341, "▁honestly": 5342, "bum": 5343, "▁las": 5344, "▁terms": 5345, "only": 5346, "▁glad": 5347, "▁earn": 5348, "▁disappointed": 5349, "▁ping": 5350, "▁intro": 5351, "▁constant": 5352, "▁everybody": 5353, "▁initial": 5354, "▁sides": 5355, "▁incre": 5356, "amin": 5357, "▁satisf": 5358, "′′": 5359, "pop": 5360, "▁editing": 5361, "▁player": 5362, "▁origin": 5363, "▁perhaps": 5364, "olar": 5365, "▁stretch": 5366, "▁gt": 5367, "▁lovely": 5368, "▁folks": 5369, "▁chances": 5370, "▁wanna": 5371, "▁appreciate": 5372, "▁greatest": 5373, "asant": 5374, "▁fantastic": 5375, "▁includes": 5376, "▁forth": 5377, "coming": 5378, "▁pron": 5379, "▁board": 5380, "craft": 5381, "▁addit": 5382, "▁bul": 5383, "azing": 5384, "▁instantly": 5385, "▁creep": 5386, "angers": 5387, "▁followed": 5388, "▁tex": 5389, "ras": 5390, "rible": 5391, "▁fingers": 5392, "▁truly": 5393, "▁tons": 5394, "▁exception": 5395, "rocery": 5396, "▁models": 5397, "▁expand": 5398, "stop": 5399, "▁protection": 5400, "▁chang": 5401, "ggy": 5402, "▁till": 5403, "▁usual": 5404, "▁metal": 5405, "autiful": 5406, "ngth": 5407, "▁magn": 5408, "▁idiots": 5409, "▁england": 5410, "▁impress": 5411, "▁frequently": 5412, "▁batter": 5413, "umber": 5414, "ways": 5415, "▁consid": 5416, "▁insane": 5417, "▁suggestion": 5418, "▁dislike": 5419, "\\": 5420, "ツ": 5421, "▁hype": 5422, "▁grey": 5423, "▁dod": 5424, "▁1000": 5425, "▁wave": 5426, "▁quant": 5427, "▁investment": 5428, "▁larger": 5429, "▁necessarily": 5430, "hy": 5431, "▁maxim": 5432, "▁codes": 5433, "▁dim": 5434, "▁easy": 5435, "▁caps": 5436, "▁solve": 5437, "▁pref": 5438, "▁packs": 5439, "▁pure": 5440, "▁buttons": 5441, "▁clar": 5442, "▁forum": 5443, "▁upvotes": 5444, "▁pa": 5445, "▁td": 5446, "auty": 5447, "▁surface": 5448, "▁goal": 5449, "▁libr": 5450, "▁legendary": 5451, "▁ranked": 5452, "▁nope": 5453, "▁useless": 5454, "▁description": 5455, "autif": 5456, "▁heavily": 5457, "ira": 5458, "₤": 5459, "£": 5460, "▁comb": 5461, "▁trad": 5462, "▁sets": 5463, "▁instance": 5464, "ecess": 5465, "❤": 5466, "ok": 5467, "ilarious": 5468, "▁counts": 5469, "▁albums": 5470, "▁pok": 5471, "▁yeah": 5472, "▁tun": 5473, "▁stere": 5474, "▁themselves": 5475, "isher": 5476, "lies": 5477, "rate": 5478, "▁generation": 5479, "isions": 5480, "▁replies": 5481, "▁minim": 5482, "▁doub": 5483, "erest": 5484, "arch": 5485, "è": 5486, "umes": 5487, "cellent": 5488, "fire": 5489, "vl": 5490, "₹": 5491, "▁stats": 5492, "▁sport": 5493, "▁setup": 5494, "▁tough": 5495, "▁fant": 5496, "▁produce": 5497, "▁minimal": 5498, "▁task": 5499, "ecause": 5500, "▁demon": 5501, "▁smaller": 5502, "▁angle": 5503, "▁trolling": 5504, "▁sty": 5505, "eless": 5506, "ui": 5507, "▁shape": 5508, "▁plate": 5509, "▁referring": 5510, "▁choices": 5511, "▁shad": 5512, "▁realize": 5513, "▁searching": 5514, "▁favorites": 5515, "istics": 5516, "ugust": 5517, "▁tags": 5518, "anish": 5519, "▁growth": 5520, "▁screenshot": 5521, "*,": 5522, "▁rod": 5523, "gers": 5524, "▁shocked": 5525, "▁cake": 5526, "▁blank": 5527, "▁idk": 5528, "▁excuse": 5529, "▁ath": 5530, "even": 5531, "▁femin": 5532, "▁throwing": 5533, "▁league": 5534, "▁soft": 5535, "▁gonna": 5536, "▁height": 5537, "▁rough": 5538, "▁wasnt": 5539, "▁topic": 5540, "▁seattle": 5541, "▁asshole": 5542, "▁actor": 5543, "▁awhile": 5544, "▁spring": 5545, "▁impact": 5546, "xic": 5547, "▁skin": 5548, "▁bothered": 5549, "▁smoking": 5550, "](": 5551, "▁offensive": 5552, "▁hilarious": 5553, "bits": 5554, "▁motiv": 5555, "▁vast": 5556, "▁planned": 5557, "▁nights": 5558, "▁painful": 5559, "▁army": 5560, "▁dates": 5561, "▁although": 5562, "▁alien": 5563, "▁toler": 5564, "▁prem": 5565, "▁slot": 5566, "iable": 5567, "▁cult": 5568, "▁assh": 5569, "▁nuts": 5570, "▁aa": 5571, "▁entit": 5572, "▁laz": 5573, "▁volunte": 5574, "iate": 5575, "hand": 5576, "▁construct": 5577, "▁butt": 5578, "▁fair": 5579, "serious": 5580, "▁tears": 5581, "▁essentially": 5582, "▁les": 5583, "▁ive": 5584, "elt": 5585, "▁rarely": 5586, "▁throughout": 5587, "pecially": 5588, "ram": 5589, "▁insight": 5590, "▁cas": 5591, "▁dro": 5592, "▁genuinely": 5593, "▁benef": 5594, "ici": 5595, "▁distance": 5596, "▁relatively": 5597, "▁mostly": 5598, "▁whether": 5599, "▁opposed": 5600, "▁ignore": 5601, "tte": 5602, "▁buddy": 5603, "▁bat": 5604, "ulate": 5605, "▁nick": 5606, "name": 5607, "▁studying": 5608, "▁confidence": 5609, "▁cos": 5610, "▁occas": 5611, "▁curious": 5612, "▁hitting": 5613, "▁clue": 5614, "shot": 5615, "▁sake": 5616, "{": 5617, "}": 5618, "▁copies": 5619, "▁enem": 5620, "▁alright": 5621, "-3": 5622, "▁exha": 5623, "▁speaking": 5624, "▁bs": 5625, "▁makeup": 5626, "▁invite": 5627, "▁bound": 5628, "▁particular": 5629, "▁sympt": 5630, "▁glitch": 5631, "▁ide": 5632, "▁uncom": 5633, "▁relate": 5634, "▁mainly": 5635, "▁amounts": 5636, "▁limited": 5637, "▁fresh": 5638, "▁eggs": 5639, "▁technically": 5640, "▁wheel": 5641, "▁halo": 5642, "▁hunter": 5643, "▁jumping": 5644, "▁circum": 5645, "ribly": 5646, "▁athe": 5647, "▁tracks": 5648, "chn": 5649, "▁role": 5650, "▁depression": 5651, "▁amount": 5652, "▁1)": 5653, "▁sacr": 5654, "▁bend": 5655, "▁au": 5656, "▁expecting": 5657, "▁teeth": 5658, "▁absolute": 5659, "▁**": 5660, "▁breat": 5661, "▁weren": 5662, "▁diamond": 5663, "▁wre": 5664, "▁decade": 5665, "▁sho": 5666, "▁society": 5667, "aturday": 5668, "▁chick": 5669, "▁ate": 5670, "▁salt": 5671, "▁ven": 5672, "mond": 5673, "▁certainly": 5674, "▁ast": 5675, "erman": 5676, "▁liqu": 5677, "▁por": 5678, "▁subreddits": 5679, "mart": 5680, "▁alot": 5681, "ounced": 5682, "▁surprised": 5683, "▁traff": 5684, "▁guarantee": 5685, "▁punch": 5686, "▁letters": 5687, "▁bonus": 5688, "▁bc": 5689, "arily": 5690, "▁lim": 5691, "▁adults": 5692, "▁scene": 5693, "lear": 5694, "uous": 5695, "ensive": 5696, "▁heads": 5697, "▁describe": 5698, "▁nu": 5699, "eren": 5700, "mar": 5701, "aur": 5702, "▁convinced": 5703, "uming": 5704, "▁submitting": 5705, "▁beh": 5706, "▁btw": 5707, "▁pointing": 5708, "▁pieces": 5709, "▁elabor": 5710, "▁parties": 5711, "▁routine": 5712, "▁episodes": 5713, "▁fairly": 5714, "▁plain": 5715, "▁hood": 5716, "othing": 5717, "▁portion": 5718, "days": 5719, "▁mechan": 5720, "rooms": 5721, "▁sust": 5722, "▁conditions": 5723, "▁thousand": 5724, "▁dollar": 5725, "▁listed": 5726, "▁dent": 5727, "▁princip": 5728, "emes": 5729, "▁ham": 5730, "▁coffee": 5731, "▁guns": 5732, "▁acid": 5733, "▁provided": 5734, "▁apply": 5735, "▁fle": 5736, "izard": 5737, "sell": 5738, "ommend": 5739, "▁rif": 5740, "▁knock": 5741, "▁rounds": 5742, "▁qual": 5743, "alk": 5744, "bot": 5745, "°": 5746, "▁swear": 5747, "▁lane": 5748, "▁anyways": 5749, "▁performed": 5750, "they": 5751, "unte": 5752, "▁tan": 5753, "▁semi": 5754, "▁assum": 5755, "▁honey": 5756, "ipes": 5757, "▁burst": 5758, "gency": 5759, "▁sin": 5760, "▁pray": 5761, "icago": 5762, "vered": 5763, "▁restart": 5764, "▁checked": 5765, "outhern": 5766, "▁bum": 5767, "▁impression": 5768, "▁various": 5769, "esth": 5770, "▁tanks": 5771, "▁determ": 5772, "pret": 5773, "acc": 5774, "▁fem": 5775, "erk": 5776, "▁appropriate": 5777, "althy": 5778, "▁tickets": 5779, "▁pocket": 5780, "lement": 5781, "ille": 5782, "<s>": 5783}